{
  "version": "1.0",
  "truncation": null,
  "padding": null,
  "added_tokens": [
    {
      "id": 0,
      "content": "[PAD]",
      "single_word": false,
      "lstrip": false,
      "rstrip": false,
      "normalized": false,
      "special": true
    },
    {
      "id": 1,
      "content": "[UNK]",
      "single_word": false,
      "lstrip": false,
      "rstrip": false,
      "normalized": false,
      "special": true
    },
    {
      "id": 2,
      "content": "[CLS]",
      "single_word": false,
      "lstrip": false,
      "rstrip": false,
      "normalized": false,
      "special": true
    },
    {
      "id": 3,
      "content": "[SEP]",
      "single_word": false,
      "lstrip": false,
      "rstrip": false,
      "normalized": false,
      "special": true
    },
    {
      "id": 4,
      "content": "[MASK]",
      "single_word": false,
      "lstrip": false,
      "rstrip": false,
      "normalized": false,
      "special": true
    }
  ],
  "normalizer": {
    "type": "BertNormalizer",
    "clean_text": true,
    "handle_chinese_chars": true,
    "strip_accents": false,
    "lowercase": true
  },
  "pre_tokenizer": {
    "type": "BertPreTokenizer"
  },
  "post_processor": null,
  "decoder": {
    "type": "WordPiece",
    "prefix": "##",
    "cleanup": true
  },
  "model": {
    "type": "WordPiece",
    "unk_token": "[UNK]",
    "continuing_subword_prefix": "##",
    "max_input_chars_per_word": 100,
    "vocab": {
      "[PAD]": 0,
      "[UNK]": 1,
      "[CLS]": 2,
      "[SEP]": 3,
      "[MASK]": 4,
      "#": 5,
      "'": 6,
      "+": 7,
      "-": 8,
      ".": 9,
      "/": 10,
      "3": 11,
      "5": 12,
      "8": 13,
      "a": 14,
      "b": 15,
      "c": 16,
      "d": 17,
      "e": 18,
      "f": 19,
      "g": 20,
      "h": 21,
      "i": 22,
      "j": 23,
      "k": 24,
      "l": 25,
      "m": 26,
      "n": 27,
      "o": 28,
      "p": 29,
      "q": 30,
      "r": 31,
      "s": 32,
      "t": 33,
      "u": 34,
      "v": 35,
      "w": 36,
      "x": 37,
      "y": 38,
      "z": 39,
      "à": 40,
      "â": 41,
      "ç": 42,
      "è": 43,
      "é": 44,
      "ê": 45,
      "î": 46,
      "ï": 47,
      "ô": 48,
      "û": 49,
      "œ": 50,
      "##e": 51,
      "##c": 52,
      "##o": 53,
      "##n": 54,
      "##a": 55,
      "##i": 56,
      "##s": 57,
      "##t": 58,
      "##u": 59,
      "##x": 60,
      "##g": 61,
      "##p": 62,
      "##r": 63,
      "##v": 64,
      "##l": 65,
      "##h": 66,
      "##w": 67,
      "##d": 68,
      "##j": 69,
      "##m": 70,
      "##é": 71,
      "##y": 72,
      "##b": 73,
      "##z": 74,
      "##f": 75,
      "##è": 76,
      "##q": 77,
      "##k": 78,
      "##â": 79,
      "##ô": 80,
      "##î": 81,
      "##ê": 82,
      "##ç": 83,
      "##û": 84,
      "##œ": 85,
      "##5": 86,
      "##ï": 87,
      "##3": 88,
      "##8": 89,
      "##er": 90,
      "##in": 91,
      "de": 92,
      "##ou": 93,
      "##on": 94,
      "##ar": 95,
      "##en": 96,
      "##ot": 97,
      "##ing": 98,
      "##le": 99,
      "##an": 100,
      "##al": 101,
      "##re": 102,
      "##out": 103,
      "##te": 104,
      "ph": 105,
      "##oto": 106,
      "photo": 107,
      "en": 108,
      "##ur": 109,
      "##ch": 110,
      "##at": 111,
      "##is": 112,
      "re": 113,
      "ab": 114,
      "##or": 115,
      "about": 116,
      "##ion": 117,
      "un": 118,
      "##il": 119,
      "##ie": 120,
      "##ra": 121,
      "##ic": 122,
      "##it": 123,
      "par": 124,
      "##et": 125,
      "##ag": 126,
      "gen": 127,
      "##ler": 128,
      "in": 129,
      "of": 130,
      "##ver": 131,
      "##es": 132,
      "gener": 133,
      "general": 134,
      "##ig": 135,
      "ch": 136,
      "parler": 137,
      "co": 138,
      "##au": 139,
      "sur": 140,
      "##se": 141,
      "##ro": 142,
      "##th": 143,
      "##el": 144,
      "tout": 145,
      "##am": 146,
      "##yth": 147,
      "##ent": 148,
      "##ac": 149,
      "##ne": 150,
      "##as": 151,
      "##us": 152,
      "ever": 153,
      "##ything": 154,
      "everything": 155,
      "##age": 156,
      "##ux": 157,
      "##né": 158,
      "##qu": 159,
      "##ir": 160,
      "##de": 161,
      "##pp": 162,
      "##ol": 163,
      "##ss": 164,
      "##om": 165,
      "##ve": 166,
      "##ut": 167,
      "##ure": 168,
      "##ri": 169,
      "##ation": 170,
      "gé": 171,
      "##ral": 172,
      "géné": 173,
      "fi": 174,
      "##oo": 175,
      "général": 176,
      "##lic": 177,
      "##ct": 178,
      "dé": 179,
      "##ier": 180,
      "##our": 181,
      "##ine": 182,
      "##ang": 183,
      "th": 184,
      "##if": 185,
      "an": 186,
      "##ph": 187,
      "##ow": 188,
      "st": 189,
      "##ant": 190,
      "du": 191,
      "##pe": 192,
      "##che": 193,
      "##ire": 194,
      "##os": 195,
      "##ce": 196,
      "pl": 197,
      "##ad": 198,
      "le": 199,
      "##mb": 200,
      "##and": 201,
      "sy": 202,
      "##ab": 203,
      "##ck": 204,
      "##ain": 205,
      "##mp": 206,
      "##me": 207,
      "con": 208,
      "une": 209,
      "##que": 210,
      "##ment": 211,
      "##ub": 212,
      "rec": 213,
      "##ter": 214,
      "##ul": 215,
      "##ille": 216,
      "car": 217,
      "pro": 218,
      "##ole": 219,
      "la": 220,
      "##ee": 221,
      "the": 222,
      "cl": 223,
      "##ue": 224,
      "##ette": 225,
      "##op": 226,
      "ar": 227,
      "bu": 228,
      "symb": 229,
      "##ise": 230,
      "##ign": 231,
      "sh": 232,
      "##ed": 233,
      "##ate": 234,
      "vo": 235,
      "##res": 236,
      "au": 237,
      "do": 238,
      "##ieux": 239,
      "ser": 240,
      "fa": 241,
      "##un": 242,
      "##ak": 243,
      "app": 244,
      "zoo": 245,
      "##st": 246,
      "##pl": 247,
      "te": 248,
      "##one": 249,
      "ai": 250,
      "##vie": 251,
      "##licieux": 252,
      "##vel": 253,
      "##ail": 254,
      "comp": 255,
      "##id": 256,
      "##inux": 257,
      "##ort": 258,
      "git": 259,
      "##ist": 260,
      "##chier": 261,
      "fichier": 262,
      "cra": 263,
      "linux": 264,
      "##ile": 265,
      "##av": 266,
      "po": 267,
      "ro": 268,
      "ter": 269,
      "file": 270,
      "##ignon": 271,
      "##ten": 272,
      "##ard": 273,
      "to": 274,
      "##pt": 275,
      "ne": 276,
      "ca": 277,
      "##ique": 278,
      "##ild": 279,
      "mon": 280,
      "##orm": 281,
      "at": 282,
      "##anc": 283,
      "we": 284,
      "sp": 285,
      "##ql": 286,
      "##ving": 287,
      "fra": 288,
      "##son": 289,
      "mar": 290,
      "pas": 291,
      "##ous": 292,
      "##ack": 293,
      "##amp": 294,
      "envie": 295,
      "##ser": 296,
      "##ge": 297,
      "mignon": 298,
      "##sion": 299,
      "##end": 300,
      "##eu": 301,
      "##cri": 302,
      "red": 303,
      "##opp": 304,
      "##ib": 305,
      "##ay": 306,
      "##tes": 307,
      "##raw": 308,
      "##ction": 309,
      "craving": 310,
      "##um": 311,
      "##ance": 312,
      "##eter": 313,
      "##anger": 314,
      "ré": 315,
      "voir": 316,
      "al": 317,
      "ach": 318,
      "##oup": 319,
      "ma": 320,
      "ex": 321,
      "sau": 322,
      "##ific": 323,
      "code": 324,
      "vi": 325,
      "##able": 326,
      "##cc": 327,
      "requ": 328,
      "acheter": 329,
      "##og": 330,
      "##ating": 331,
      "mo": 332,
      "##ite": 333,
      "##velopp": 334,
      "frais": 335,
      "##est": 336,
      "##ran": 337,
      "symbole": 338,
      "##cript": 339,
      "manger": 340,
      "buy": 341,
      "##ute": 342,
      "not": 343,
      "hot": 344,
      "##form": 345,
      "##int": 346,
      "eating": 347,
      "cute": 348,
      "##dow": 349,
      "##ée": 350,
      "##plo": 351,
      "##ale": 352,
      "##cher": 353,
      "recette": 354,
      "or": 355,
      "##ipe": 356,
      "##oud": 357,
      "wild": 358,
      "deb": 359,
      "##act": 360,
      "mus": 361,
      "so": 362,
      "he": 363,
      "plan": 364,
      "se": 365,
      "##ml": 366,
      "tra": 367,
      "be": 368,
      "##ious": 369,
      "##ork": 370,
      "##ett": 371,
      "##hub": 372,
      "##phone": 373,
      "github": 374,
      "main": 375,
      "##all": 376,
      "##ace": 377,
      "symbol": 378,
      "##ase": 379,
      "##iel": 380,
      "##mm": 381,
      "dess": 382,
      "dessin": 383,
      "je": 384,
      "délicieux": 385,
      "draw": 386,
      "##vage": 387,
      "sauvage": 388,
      "drawing": 389,
      "recipe": 390,
      "##resh": 391,
      "ban": 392,
      "win": 393,
      "##ress": 394,
      "fresh": 395,
      "sn": 396,
      "see": 397,
      "##onne": 398,
      "chau": 399,
      "seeing": 400,
      "fil": 401,
      "me": 402,
      "##eur": 403,
      "fo": 404,
      "##ht": 405,
      "##ère": 406,
      "delic": 407,
      "delicious": 408,
      "##ru": 409,
      "cloud": 410,
      "su": 411,
      "qu": 412,
      "##lé": 413,
      "cour": 414,
      "gra": 415,
      "rep": 416,
      "##fig": 417,
      "##ible": 418,
      "il": 419,
      "pr": 420,
      "ver": 421,
      "##ice": 422,
      "per": 423,
      "##ding": 424,
      "##pen": 425,
      "bou": 426,
      "proj": 427,
      "##ger": 428,
      "##ull": 429,
      "##ess": 430,
      "jav": 431,
      "##der": 432,
      "delicieux": 433,
      "##agne": 434,
      "fro": 435,
      "##igne": 436,
      "sc": 437,
      "mou": 438,
      "fl": 439,
      "pe": 440,
      "sal": 441,
      "##dit": 442,
      "che": 443,
      "##euille": 444,
      "##yc": 445,
      "gl": 446,
      "##ret": 447,
      "##ass": 448,
      "cer": 449,
      "dan": 450,
      "##iss": 451,
      "##orn": 452,
      "##ust": 453,
      "man": 454,
      "##omme": 455,
      "dist": 456,
      "open": 457,
      "sou": 458,
      "##go": 459,
      "##ution": 460,
      "am": 461,
      "##ip": 462,
      "##ight": 463,
      "champ": 464,
      "##ift": 465,
      "request": 466,
      "##rit": 467,
      "##her": 468,
      "on": 469,
      "##ive": 470,
      "bo": 471,
      "##ry": 472,
      "##adi": 473,
      "faire": 474,
      "col": 475,
      "##née": 476,
      "conne": 477,
      "prog": 478,
      "aut": 479,
      "sw": 480,
      "##bution": 481,
      "##ribution": 482,
      "distribution": 483,
      "lang": 484,
      "##oc": 485,
      "##ill": 486,
      "##ff": 487,
      "rob": 488,
      "##ron": 489,
      "pull": 490,
      "ta": 491,
      "##ost": 492,
      "fait": 493,
      "##ake": 494,
      "##iz": 495,
      "acc": 496,
      "ple": 497,
      "et": 498,
      "##char": 499,
      "arch": 500,
      "dog": 501,
      "##ey": 502,
      "cam": 503,
      "star": 504,
      "##ploy": 505,
      "go": 506,
      "##ap": 507,
      "cas": 508,
      "ec": 509,
      "ham": 510,
      "éc": 511,
      "gr": 512,
      "sk": 513,
      "##cture": 514,
      "jour": 515,
      "my": 516,
      "##ied": 517,
      "bat": 518,
      "##use": 519,
      "##lo": 520,
      "##pes": 521,
      "##min": 522,
      "mer": 523,
      "##app": 524,
      "##tu": 525,
      "coup": 526,
      "##ok": 527,
      "don": 528,
      "lo": 529,
      "##tific": 530,
      "vide": 531,
      "vol": 532,
      "##aire": 533,
      "##ush": 534,
      "##cket": 535,
      "aw": 536,
      "tr": 537,
      "des": 538,
      "bug": 539,
      "##uage": 540,
      "##du": 541,
      "choc": 542,
      "##veur": 543,
      "serveur": 544,
      "##veloppeur": 545,
      "camp": 546,
      "fe": 547,
      "post": 548,
      "##tle": 549,
      "##ification": 550,
      "##cu": 551,
      "##ning": 552,
      "##gul": 553,
      "mark": 554,
      "pou": 555,
      "tom": 556,
      "##sh": 557,
      "ann": 558,
      "##ettes": 559,
      "hel": 560,
      "##ly": 561,
      "##king": 562,
      "##ather": 563,
      "serv": 564,
      "foot": 565,
      "##ade": 566,
      "##bu": 567,
      "web": 568,
      "chocol": 569,
      "notification": 570,
      "##izz": 571,
      "video": 572,
      "##cte": 573,
      "##seau": 574,
      "carte": 575,
      "cou": 576,
      "feuille": 577,
      "##con": 578,
      "##ach": 579,
      "##down": 580,
      "chauss": 581,
      "ht": 582,
      "json": 583,
      "##nt": 584,
      "##tail": 585,
      "##line": 586,
      "##ali": 587,
      "server": 588,
      "mainten": 589,
      "dans": 590,
      "cent": 591,
      "js": 592,
      "##pack": 593,
      "mouse": 594,
      "goo": 595,
      "##erry": 596,
      "##ish": 597,
      "##ange": 598,
      "por": 599,
      "##pine": 600,
      "##rer": 601,
      "##teau": 602,
      "##ash": 603,
      "##sert": 604,
      "window": 605,
      "graph": 606,
      "##phant": 607,
      "edit": 608,
      "mé": 609,
      "train": 610,
      "##gular": 611,
      "bon": 612,
      "bit": 613,
      "##cur": 614,
      "autom": 615,
      "markdown": 616,
      "sour": 617,
      "vue": 618,
      "##ix": 619,
      "##ige": 620,
      "##iff": 621,
      "##ateau": 622,
      "##ancer": 623,
      "ligne": 624,
      "##gg": 625,
      "##ense": 626,
      "cont": 627,
      "terre": 628,
      "jou": 629,
      "mic": 630,
      "out": 631,
      "radi": 632,
      "surf": 633,
      "person": 634,
      "radio": 635,
      "rand": 636,
      "##sql": 637,
      "##too": 638,
      "##jar": 639,
      "##ick": 640,
      "gentoo": 641,
      "config": 642,
      "version": 643,
      "manjar": 644,
      "ski": 645,
      "mysql": 646,
      "##bucket": 647,
      "windows": 648,
      "graphql": 649,
      "bitbucket": 650,
      "manjaro": 651,
      "az": 652,
      "ave": 653,
      "bre": 654,
      "bac": 655,
      "cs": 656,
      "fed": 657,
      "hist": 658,
      "lic": 659,
      "moto": 660,
      "nix": 661,
      "pyth": 662,
      "pop": 663,
      "panc": 664,
      "ram": 665,
      "rub": 666,
      "sush": 667,
      "tac": 668,
      "ub": 669,
      "xml": 670,
      "##corn": 671,
      "##ian": 672,
      "##gres": 673,
      "##lab": 674,
      "##hett": 675,
      "##bur": 676,
      "##zel": 677,
      "php": 678,
      "react": 679,
      "##ora": 680,
      "##aghett": 681,
      "cook": 682,
      "angular": 683,
      "##untu": 684,
      "##akes": 685,
      "gitlab": 686,
      "spaghett": 687,
      "alpine": 688,
      "orange": 689,
      "debian": 690,
      "banan": 691,
      "java": 692,
      "##retzel": 693,
      "hambur": 694,
      "postgres": 695,
      "toml": 696,
      "centos": 697,
      "azure": 698,
      "avec": 699,
      "bacon": 700,
      "csv": 701,
      "fedora": 702,
      "histor": 703,
      "python": 704,
      "popcorn": 705,
      "pancakes": 706,
      "ramen": 707,
      "ruby": 708,
      "sushi": 709,
      "taco": 710,
      "ubuntu": 711,
      "cookie": 712,
      "spaghetti": 713,
      "hamburger": 714,
      "kang": 715,
      "lion": 716,
      "pand": 717,
      "tig": 718,
      "ét": 719,
      "##mer": 720,
      "devel": 721,
      "##atch": 722,
      "cock": 723,
      "##rop": 724,
      "##phin": 725,
      "champagne": 726,
      "html": 727,
      "maintenance": 728,
      "panda": 729,
      "develop": 730,
      "cocktail": 731,
      "action": 732,
      "pizz": 733,
      "##la": 734,
      "##oleil": 735,
      "tele": 736,
      "projet": 737,
      "av": 738,
      "back": 739,
      "##room": 740,
      "point": 741,
      "fam": 742,
      "fork": 743,
      "##rou": 744,
      "part": 745,
      "docu": 746,
      "termin": 747,
      "document": 748,
      "pied": 749,
      "soleil": 750,
      "##oile": 751,
      "##uie": 752,
      "##xi": 753,
      "##fle": 754,
      "##own": 755,
      "taxi": 756,
      "bus": 757,
      "pet": 758,
      "rust": 759,
      "##can": 760,
      "##ave": 761,
      "weather": 762,
      "redis": 763,
      "cable": 764,
      "##sible": 765,
      "ansible": 766,
      "##ading": 767,
      "jouer": 768,
      "hum": 769,
      "sun": 770,
      "##db": 771,
      "##tension": 772,
      "mongo": 773,
      "extension": 774,
      "license": 775,
      "pizza": 776,
      "ty": 777,
      "tag": 778,
      "deploy": 779,
      "neige": 780,
      "vim": 781,
      "camping": 782,
      "hat": 783,
      "##leur": 784,
      "certific": 785,
      "pain": 786,
      "yam": 787,
      "##sl": 788,
      "inform": 789,
      "progra": 790,
      "swift": 791,
      "nixos": 792,
      "yaml": 793,
      "cact": 794,
      "kali": 795,
      "pomme": 796,
      "comm": 797,
      "##ilet": 798,
      "terra": 799,
      "toilet": 800,
      "souris": 801,
      "cactus": 802,
      "ad": 803,
      "cre": 804,
      "cyc": 805,
      "fri": 806,
      "##suse": 807,
      "snow": 808,
      "opensuse": 809,
      "robot": 810,
      "aws": 811,
      "micro": 812,
      "mongodb": 813,
      "cycl": 814,
      "cand": 815,
      "down": 816,
      "##af": 817,
      "##ien": 818,
      "##gl": 819,
      "##élé": 820,
      "##art": 821,
      "##chine": 822,
      "coding": 823,
      "##ell": 824,
      "machine": 825,
      "cold": 826,
      "volcan": 827,
      "editor": 828,
      "base": 829,
      "css": 830,
      "ciel": 831,
      "hor": 832,
      "hau": 833,
      "key": 834,
      "pê": 835,
      "##xion": 836,
      "##ête": 837,
      "dat": 838,
      "ele": 839,
      "sing": 840,
      "##ect": 841,
      "##net": 842,
      "##be": 843,
      "##ateur": 844,
      "apple": 845,
      "webpack": 846,
      "configur": 847,
      "télé": 848,
      "##velopper": 849,
      "nat": 850,
      "script": 851,
      "##ste": 852,
      "configuration": 853,
      "kot": 854,
      "##ner": 855,
      "##iver": 856,
      "##lin": 857,
      "##di": 858,
      "musc": 859,
      "terraform": 860,
      "pêche": 861,
      "kotlin": 862,
      "for": 863,
      "##ial": 864,
      "##bo": 865,
      "rev": 866,
      "##irt": 867,
      "##iseau": 868,
      "shirt": 869,
      "##config": 870,
      "editorconfig": 871,
      "es": 872,
      "pant": 873,
      "inf": 874,
      "##ational": 875,
      "card": 876,
      "ord": 877,
      "programm": 878,
      "diff": 879,
      "wh": 880,
      "##ais": 881,
      "##gie": 882,
      "##quette": 883,
      "##iere": 884,
      "rose": 885,
      "couple": 886,
      "terminal": 887,
      "extensions": 888,
      "cor": 889,
      "fish": 890,
      "no": 891,
      "sac": 892,
      "##mon": 893,
      "##alon": 894,
      "##idé": 895,
      "glass": 896,
      "##pescript": 897,
      "typescript": 898,
      "date": 899,
      "rain": 900,
      "##inte": 901,
      "reg": 902,
      "ou": 903,
      "sm": 904,
      "##gh": 905,
      "##arm": 906,
      "play": 907,
      "project": 908,
      "##ycle": 909,
      "langage": 910,
      "##charpe": 911,
      "ara": 912,
      "can": 913,
      "dos": 914,
      "vis": 915,
      "##aphone": 916,
      "##gaphone": 917,
      "desert": 918,
      "##tel": 919,
      "##ame": 920,
      "##uter": 921,
      "temp": 922,
      "hotel": 923,
      "batter": 924,
      "ey": 925,
      "les": 926,
      "yog": 927,
      "ça": 928,
      "##eux": 929,
      "##ière": 930,
      "##mage": 931,
      "##ble": 932,
      "##endre": 933,
      "yoga": 934,
      "bir": 935,
      "dis": 936,
      "lit": 937,
      "up": 938,
      "##tre": 939,
      "##oney": 940,
      "repo": 941,
      "language": 942,
      "ti": 943,
      "##up": 944,
      "dep": 945,
      "##urs": 946,
      "##rier": 947,
      "neur": 948,
      "aller": 949,
      "information": 950,
      "microphone": 951,
      "ear": 952,
      "np": 953,
      "national": 954,
      "##rast": 955,
      "##ascript": 956,
      "leaf": 957,
      "##ructure": 958,
      "javascript": 959,
      "infrast": 960,
      "npm": 961,
      "infrastructure": 962,
      "##nal": 963,
      "##iste": 964,
      "##ital": 965,
      "##ague": 966,
      "mais": 967,
      "love": 968,
      "postgresql": 969,
      "bash": 970,
      "emb": 971,
      "hand": 972,
      "mess": 973,
      "run": 974,
      "##oint": 975,
      "##ôt": 976,
      "##ark": 977,
      "##nées": 978,
      "cartes": 979,
      "caf": 980,
      "cours": 981,
      "bougie": 982,
      "données": 983,
      "developer": 984,
      "call": 985,
      "donne": 986,
      "tre": 987,
      "vidé": 988,
      "work": 989,
      "##ror": 990,
      "##ète": 991,
      "##erne": 992,
      "##ignée": 993,
      "##ower": 994,
      "syste": 995,
      "##cker": 996,
      "docker": 997,
      "heure": 998,
      "donnees": 999,
      "vidéo": 1000,
      "hi": 1001,
      "imp": 1002,
      "rest": 1003,
      "online": 1004,
      "dou": 1005,
      "trop": 1006,
      "##val": 1007,
      "##wl": 1008,
      "##arg": 1009,
      "##ence": 1010,
      "##ook": 1011,
      "##ifi": 1012,
      "##abl": 1013,
      "prendre": 1014,
      "flower": 1015,
      "elephant": 1016,
      "time": 1017,
      "it": 1018,
      "iss": 1019,
      "kub": 1020,
      "##ep": 1021,
      "##ete": 1022,
      "##man": 1023,
      "##inateur": 1024,
      "developpeur": 1025,
      "##ater": 1026,
      "clav": 1027,
      "secur": 1028,
      "froid": 1029,
      "chocolat": 1030,
      "ordinateur": 1031,
      "##ernetes": 1032,
      "issue": 1033,
      "kubernetes": 1034,
      "clavier": 1035,
      "er": 1036,
      "mout": 1037,
      "wave": 1038,
      "yeux": 1039,
      "##ente": 1040,
      "##lication": 1041,
      "application": 1042,
      "head": 1043,
      "##ettre": 1044,
      "chaud": 1045,
      "##ronom": 1046,
      "grand": 1047,
      "helic": 1048,
      "mouton": 1049,
      "wine": 1050,
      "##vo": 1051,
      "##lease": 1052,
      "release": 1053,
      "##ies": 1054,
      "dép": 1055,
      "and": 1056,
      "service": 1057,
      "actions": 1058,
      "you": 1059,
      "##oire": 1060,
      "##âteau": 1061,
      "##arde": 1062,
      "##reg": 1063,
      "##isson": 1064,
      "ind": 1065,
      "inst": 1066,
      "développeur": 1067,
      "plage": 1068,
      "computer": 1069,
      "poisson": 1070,
      "connexion": 1071,
      "chaussettes": 1072,
      "porte": 1073,
      "bran": 1074,
      "lun": 1075,
      "owl": 1076,
      "pot": 1077,
      "tur": 1078,
      "##cs": 1079,
      "##ting": 1080,
      "##tabl": 1081,
      "##vis": 1082,
      "##dge": 1083,
      "##ones": 1084,
      "##eng": 1085,
      "##checs": 1086,
      "clo": 1087,
      "##opter": 1088,
      "exp": 1089,
      "progress": 1090,
      "coucher": 1091,
      "petit": 1092,
      "helicopter": 1093,
      "lunettes": 1094,
      "##tablir": 1095,
      "dire": 1096,
      "gc": 1097,
      "miel": 1098,
      "pay": 1099,
      "##pon": 1100,
      "##berry": 1101,
      "##onnée": 1102,
      "##aring": 1103,
      "##arning": 1104,
      "##ante": 1105,
      "straw": 1106,
      "prof": 1107,
      "randonnée": 1108,
      "temps": 1109,
      "eyes": 1110,
      "dépôt": 1111,
      "gcp": 1112,
      "strawberry": 1113,
      "but": 1114,
      "hô": 1115,
      "ping": 1116,
      "ssl": 1117,
      "wifi": 1118,
      "##ache": 1119,
      "##sse": 1120,
      "##fly": 1121,
      "##ouin": 1122,
      "chronom": 1123,
      "coch": 1124,
      "##terfly": 1125,
      "##ogage": 1126,
      "planète": 1127,
      "qui": 1128,
      "peche": 1129,
      "glace": 1130,
      "robe": 1131,
      "personne": 1132,
      "butterfly": 1133,
      "pingouin": 1134,
      "jeu": 1135,
      "mi": 1136,
      "pon": 1137,
      "water": 1138,
      "##hroom": 1139,
      "##êt": 1140,
      "##ical": 1141,
      "mont": 1142,
      "succ": 1143,
      "salad": 1144,
      "champignon": 1145,
      "##glise": 1146,
      "bee": 1147,
      "cit": 1148,
      "eag": 1149,
      "fr": 1150,
      "mac": 1151,
      "ours": 1152,
      "ren": 1153,
      "sign": 1154,
      "##point": 1155,
      "##bon": 1156,
      "##ité": 1157,
      "plus": 1158,
      "att": 1159,
      "fox": 1160,
      "fromage": 1161,
      "##ignee": 1162,
      "cheval": 1163,
      "soupe": 1164,
      "etoile": 1165,
      "journal": 1166,
      "##cted": 1167,
      "good": 1168,
      "bonbon": 1169,
      "historique": 1170,
      "depot": 1171,
      "message": 1172,
      "eagle": 1173,
      "signal": 1174,
      "ba": 1175,
      "bal": 1176,
      "fer": 1177,
      "face": 1178,
      "lancer": 1179,
      "pretzel": 1180,
      "tort": 1181,
      "##aur": 1182,
      "##bre": 1183,
      "##bit": 1184,
      "rece": 1185,
      "##ors": 1186,
      "##ssier": 1187,
      "lait": 1188,
      "##eep": 1189,
      "sho": 1190,
      "dossier": 1191,
      "supp": 1192,
      "course": 1193,
      "grapes": 1194,
      "camel": 1195,
      "chocolate": 1196,
      "famille": 1197,
      "haut": 1198,
      "restaur": 1199,
      "pont": 1200,
      "tortue": 1201,
      "aff": 1202,
      "em": 1203,
      "loup": 1204,
      "sé": 1205,
      "œu": 1206,
      "##cre": 1207,
      "##apl": 1208,
      "##ug": 1209,
      "##pr": 1210,
      "##per": 1211,
      "##pent": 1212,
      "##ès": 1213,
      "##key": 1214,
      "##ouille": 1215,
      "##enouille": 1216,
      "parapl": 1217,
      "inter": 1218,
      "##roir": 1219,
      "##ures": 1220,
      "shark": 1221,
      "serpent": 1222,
      "monkey": 1223,
      "réseau": 1224,
      "megaphone": 1225,
      "camion": 1226,
      "grenouille": 1227,
      "chaussures": 1228,
      "banana": 1229,
      "tiger": 1230,
      "whale": 1231,
      "miroir": 1232,
      "œuf": 1233,
      "parapluie": 1234,
      "act": 1235,
      "jus": 1236,
      "nuage": 1237,
      "pine": 1238,
      "port": 1239,
      "spe": 1240,
      "élé": 1241,
      "##nut": 1242,
      "##ait": 1243,
      "##iage": 1244,
      "##ps": 1245,
      "##rot": 1246,
      "##ration": 1247,
      "##lpe": 1248,
      "dec": 1249,
      "##arch": 1250,
      "revie": 1251,
      "##ese": 1252,
      "cherry": 1253,
      "##deau": 1254,
      "##ourou": 1255,
      "stade": 1256,
      "learning": 1257,
      "carrot": 1258,
      "cadeau": 1259,
      "musique": 1260,
      "cheese": 1261,
      "##apple": 1262,
      "poulpe": 1263,
      "kangourou": 1264,
      "##ghnut": 1265,
      "doughnut": 1266,
      "cochon": 1267,
      "montagne": 1268,
      "pineapple": 1269,
      "review": 1270,
      "dol": 1271,
      "fol": 1272,
      "mail": 1273,
      "nu": 1274,
      "pour": 1275,
      "son": 1276,
      "##eille": 1277,
      "##carg": 1278,
      "##ore": 1279,
      "##nd": 1280,
      "##élic": 1281,
      "reseau": 1282,
      "abeille": 1283,
      "chat": 1284,
      "cow": 1285,
      "##ast": 1286,
      "lemon": 1287,
      "new": 1288,
      "banque": 1289,
      "amit": 1290,
      "going": 1291,
      "motor": 1292,
      "frites": 1293,
      "##iseaux": 1294,
      "escarg": 1295,
      "playing": 1296,
      "dolphin": 1297,
      "escargot": 1298,
      "bed": 1299,
      "fin": 1300,
      "lu": 1301,
      "live": 1302,
      "rab": 1303,
      "wed": 1304,
      "##ci": 1305,
      "##trer": 1306,
      "##pin": 1307,
      "##yer": 1308,
      "##inking": 1309,
      "##atre": 1310,
      "rel": 1311,
      "##iture": 1312,
      "chick": 1313,
      "duck": 1314,
      "lapin": 1315,
      "voiture": 1316,
      "planet": 1317,
      "quatre": 1318,
      "poule": 1319,
      "feuilles": 1320,
      "certificat": 1321,
      "canard": 1322,
      "citron": 1323,
      "fries": 1324,
      "restaurant": 1325,
      "rabbit": 1326,
      "wedding": 1327,
      "chicken": 1328,
      "br": 1329,
      "dau": 1330,
      "ia": 1331,
      "net": 1332,
      "sort": 1333,
      "vache": 1334,
      "##cycle": 1335,
      "##nant": 1336,
      "##saire": 1337,
      "##gle": 1338,
      "##pital": 1339,
      "##otte": 1340,
      "##anas": 1341,
      "##alle": 1342,
      "off": 1343,
      "##veg": 1344,
      "ananas": 1345,
      "stadi": 1346,
      "carotte": 1347,
      "roy": 1348,
      "marteau": 1349,
      "sauveg": 1350,
      "##inture": 1351,
      "snail": 1352,
      "peinture": 1353,
      "cerise": 1354,
      "casquette": 1355,
      "donut": 1356,
      "anniver": 1357,
      "porter": 1358,
      "break": 1359,
      "backup": 1360,
      "dauphin": 1361,
      "stadium": 1362,
      "anniversaire": 1363,
      "aux": 1364,
      "egg": 1365,
      "ju": 1366,
      "oct": 1367,
      "pig": 1368,
      "table": 1369,
      "##dy": 1370,
      "##ery": 1371,
      "##aroo": 1372,
      "##iement": 1373,
      "##opus": 1374,
      "build": 1375,
      "##arder": 1376,
      "neut": 1377,
      "mode": 1378,
      "filter": 1379,
      "##riting": 1380,
      "banane": 1381,
      "kangaroo": 1382,
      "toilettes": 1383,
      "glasses": 1384,
      "email": 1385,
      "juice": 1386,
      "octopus": 1387,
      "ag": 1388,
      "bri": 1389,
      "bale": 1390,
      "bretzel": 1391,
      "câ": 1392,
      "fleur": 1393,
      "mil": 1394,
      "pan": 1395,
      "pap": 1396,
      "rais": 1397,
      "ste": 1398,
      "sav": 1399,
      "wol": 1400,
      "##feuille": 1401,
      "##ke": 1402,
      "##lete": 1403,
      "##reen": 1404,
      "##elle": 1405,
      "déb": 1406,
      "ancre": 1407,
      "##anter": 1408,
      "lecture": 1409,
      "##ainer": 1410,
      "##gement": 1411,
      "requin": 1412,
      "bank": 1413,
      "snake": 1414,
      "frog": 1415,
      "##riture": 1416,
      "footb": 1417,
      "container": 1418,
      "tigre": 1419,
      "singe": 1420,
      "muscle": 1421,
      "##board": 1422,
      "portefeuille": 1423,
      "nuageux": 1424,
      "bridge": 1425,
      "baleine": 1426,
      "câble": 1427,
      "milk": 1428,
      "raisin": 1429,
      "wolf": 1430,
      "mile": 1431,
      "soup": 1432,
      "trier": 1433,
      "##sole": 1434,
      "##work": 1435,
      "enf": 1436,
      "ence": 1437,
      "##ché": 1438,
      "##ord": 1439,
      "char": 1440,
      "chame": 1441,
      "déploy": 1442,
      "##stone": 1443,
      "compte": 1444,
      "space": 1445,
      "planete": 1446,
      "scar": 1447,
      "automne": 1448,
      "history": 1449,
      "avancer": 1450,
      "snowman": 1451,
      "cycling": 1452,
      "candy": 1453,
      "turtle": 1454,
      "##vision": 1455,
      "network": 1456,
      "breakpoint": 1457,
      "milestone": 1458,
      "enceinte": 1459,
      "chameau": 1460,
      "aig": 1461,
      "dress": 1462,
      "gam": 1463,
      "kiss": 1464,
      "ring": 1465,
      "##ings": 1466,
      "##ory": 1467,
      "déc": 1468,
      "mariage": 1469,
      "mushroom": 1470,
      "search": 1471,
      "bear": 1472,
      "##ruck": 1473,
      "salade": 1474,
      "horse": 1475,
      "pantalon": 1476,
      "renard": 1477,
      "affi": 1478,
      "motorcycle": 1479,
      "aigle": 1480,
      "ciseaux": 1481,
      "eau": 1482,
      "ice": 1483,
      "let": 1484,
      "list": 1485,
      "take": 1486,
      "##rêt": 1487,
      "##ful": 1488,
      "##ato": 1489,
      "conf": 1490,
      "arrêt": 1491,
      "spat": 1492,
      "sport": 1493,
      "##onnee": 1494,
      "film": 1495,
      "mount": 1496,
      "soul": 1497,
      "écran": 1498,
      "annu": 1499,
      "servir": 1500,
      "randonnee": 1501,
      "painting": 1502,
      "cream": 1503,
      "running": 1504,
      "potato": 1505,
      "éléphant": 1506,
      "folder": 1507,
      "mountain": 1508,
      "bague": 1509,
      "gro": 1510,
      "honey": 1511,
      "lam": 1512,
      "preg": 1513,
      "peng": 1514,
      "rapp": 1515,
      "vie": 1516,
      "vent": 1517,
      "writing": 1518,
      "##tr": 1519,
      "##uin": 1520,
      "##do": 1521,
      "developper": 1522,
      "##outer": 1523,
      "##ily": 1524,
      "park": 1525,
      "inse": 1526,
      "stop": 1527,
      "pluie": 1528,
      "##abase": 1529,
      "poche": 1530,
      "fraise": 1531,
      "beach": 1532,
      "##illon": 1533,
      "merge": 1534,
      "google": 1535,
      "family": 1536,
      "database": 1537,
      "revue": 1538,
      "battery": 1539,
      "sécur": 1540,
      "papillon": 1541,
      "step": 1542,
      "lampe": 1543,
      "penguin": 1544,
      "cle": 1545,
      "crit": 1546,
      "med": 1547,
      "vel": 1548,
      "##az": 1549,
      "##ème": 1550,
      "##chor": 1551,
      "##ilier": 1552,
      "child": 1553,
      "anchor": 1554,
      "##mbre": 1555,
      "arc": 1556,
      "arret": 1557,
      "voilier": 1558,
      "##aking": 1559,
      "##ider": 1560,
      "moon": 1561,
      "casque": 1562,
      "bonh": 1563,
      "data": 1564,
      "football": 1565,
      "velo": 1566,
      "hib": 1567,
      "li": 1568,
      "mir": 1569,
      "pip": 1570,
      "truck": 1571,
      "walle": 1572,
      "écharpe": 1573,
      "##ugg": 1574,
      "##gent": 1575,
      "##mel": 1576,
      "envo": 1577,
      "##ity": 1578,
      "##eline": 1579,
      "##ome": 1580,
      "développer": 1581,
      "##phones": 1582,
      "lever": 1583,
      "syst": 1584,
      "##cks": 1585,
      "appel": 1586,
      "##ption": 1587,
      "all": 1588,
      "mod": 1589,
      "socks": 1590,
      "sec": 1591,
      "cloudy": 1592,
      "sciss": 1593,
      "peach": 1594,
      "amour": 1595,
      "étoile": 1596,
      "humain": 1597,
      "certificate": 1598,
      "candle": 1599,
      "headphones": 1600,
      "direct": 1601,
      "watermel": 1602,
      "lune": 1603,
      "enfant": 1604,
      "hibou": 1605,
      "mirror": 1606,
      "pipeline": 1607,
      "wallet": 1608,
      "système": 1609,
      "scissors": 1610,
      "watermelon": 1611,
      "aler": 1612,
      "bateau": 1613,
      "corn": 1614,
      "fou": 1615,
      "gout": 1616,
      "hélic": 1617,
      "nou": 1618,
      "##rent": 1619,
      "recher": 1620,
      "intel": 1621,
      "château": 1622,
      "##ssole": 1623,
      "thé": 1624,
      "cap": 1625,
      "atten": 1626,
      "filtrer": 1627,
      "prot": 1628,
      "verre": 1629,
      "boussole": 1630,
      "ecran": 1631,
      "automat": 1632,
      "natation": 1633,
      "pouring": 1634,
      "annuler": 1635,
      "bonhomme": 1636,
      "goutte": 1637,
      "dr": 1638,
      "ile": 1639,
      "lettre": 1640,
      "ob": 1641,
      "pub": 1642,
      "pres": 1643,
      "sch": 1644,
      "vin": 1645,
      "##ool": 1646,
      "##ty": 1647,
      "##mme": 1648,
      "##isé": 1649,
      "wearing": 1650,
      "##ibil": 1651,
      "query": 1652,
      "##atching": 1653,
      "visibil": 1654,
      "little": 1655,
      "ferme": 1656,
      "shoes": 1657,
      "déployer": 1658,
      "letter": 1659,
      "school": 1660,
      "biere": 1661,
      "eth": 1662,
      "met": 1663,
      "mag": 1664,
      "ner": 1665,
      "over": 1666,
      "pack": 1667,
      "umbre": 1668,
      "vé": 1669,
      "##sp": 1670,
      "##light": 1671,
      "##lla": 1672,
      "##ma": 1673,
      "##yage": 1674,
      "##ernet": 1675,
      "chateau": 1676,
      "stat": 1677,
      "store": 1678,
      "sheep": 1679,
      "##aker": 1680,
      "aide": 1681,
      "cache": 1682,
      "music": 1683,
      "heart": 1684,
      "salle": 1685,
      "danser": 1686,
      "boire": 1687,
      "pleine": 1688,
      "keyboard": 1689,
      "nature": 1690,
      "araignée": 1691,
      "bird": 1692,
      "tree": 1693,
      "import": 1694,
      "clover": 1695,
      "attente": 1696,
      "ethernet": 1697,
      "metro": 1698,
      "umbrella": 1699,
      "vélo": 1700,
      "fus": 1701,
      "gol": 1702,
      "hou": 1703,
      "##ai": 1704,
      "##ape": 1705,
      "##tro": 1706,
      "##reur": 1707,
      "##teque": 1708,
      "inc": 1709,
      "chien": 1710,
      "##quer": 1711,
      "sty": 1712,
      "##ult": 1713,
      "artific": 1714,
      "tea": 1715,
      "pasteque": 1716,
      "map": 1717,
      "movie": 1718,
      "help": 1719,
      "métro": 1720,
      "bread": 1721,
      "friend": 1722,
      "ouver": 1723,
      "araignee": 1724,
      "system": 1725,
      "hiking": 1726,
      "erreur": 1727,
      "andro": 1728,
      "internet": 1729,
      "savon": 1730,
      "pregnant": 1731,
      "golang": 1732,
      "bière": 1733,
      "cro": 1734,
      "ge": 1735,
      "mot": 1736,
      "mal": 1737,
      "nee": 1738,
      "rou": 1739,
      "uplo": 1740,
      "wit": 1741,
      "##tère": 1742,
      "##œur": 1743,
      "##ount": 1744,
      "##are": 1745,
      "##ening": 1746,
      "reç": 1747,
      "parleur": 1748,
      "##ession": 1749,
      "##igt": 1750,
      "chess": 1751,
      "chanter": 1752,
      "##ask": 1753,
      "recu": 1754,
      "cart": 1755,
      "##optère": 1756,
      "##ignoire": 1757,
      "show": 1758,
      "doigt": 1759,
      "compress": 1760,
      "beer": 1761,
      "connection": 1762,
      "party": 1763,
      "baignoire": 1764,
      "hélicoptère": 1765,
      "with": 1766,
      "brou": 1767,
      "cat": 1768,
      "echarpe": 1769,
      "sche": 1770,
      "sub": 1771,
      "sett": 1772,
      "##oin": 1773,
      "##way": 1774,
      "##fin": 1775,
      "##isme": 1776,
      "##itation": 1777,
      "##igh": 1778,
      "##asin": 1779,
      "argent": 1780,
      "apprent": 1781,
      "tex": 1782,
      "spider": 1783,
      "check": 1784,
      "##issage": 1785,
      "##illard": 1786,
      "hammer": 1787,
      "##ship": 1788,
      "cyclisme": 1789,
      "pants": 1790,
      "birth": 1791,
      "embar": 1792,
      "cafe": 1793,
      "hôtel": 1794,
      "macos": 1795,
      "royal": 1796,
      "envoyer": 1797,
      "secure": 1798,
      "magasin": 1799,
      "brouillard": 1800,
      "subway": 1801,
      "settings": 1802,
      "##finit": 1803,
      "apprentissage": 1804,
      "bra": 1805,
      "cœur": 1806,
      "now": 1807,
      "sail": 1808,
      "tick": 1809,
      "val": 1810,
      "échecs": 1811,
      "##nel": 1812,
      "##iale": 1813,
      "##raph": 1814,
      "int": 1815,
      "inqu": 1816,
      "dégo": 1817,
      "station": 1818,
      "##osant": 1819,
      "clé": 1820,
      "composant": 1821,
      "weight": 1822,
      "beau": 1823,
      "##dition": 1824,
      "##ifting": 1825,
      "journe": 1826,
      "merci": 1827,
      "volcano": 1828,
      "café": 1829,
      "##ponible": 1830,
      "balai": 1831,
      "scarf": 1832,
      "spatiale": 1833,
      "drinking": 1834,
      "house": 1835,
      "ticket": 1836,
      "dégoû": 1837,
      "bes": 1838,
      "farm": 1839,
      "ide": 1840,
      "isl": 1841,
      "jalon": 1842,
      "loud": 1843,
      "rire": 1844,
      "##sage": 1845,
      "##ans": 1846,
      "##iser": 1847,
      "under": 1848,
      "##ieve": 1849,
      "parc": 1850,
      "désert": 1851,
      "##ourdi": 1852,
      "art": 1853,
      "shell": 1854,
      "voyage": 1855,
      "##formance": 1856,
      "wind": 1857,
      "suis": 1858,
      "performance": 1859,
      "screen": 1860,
      "swi": 1861,
      "pleading": 1862,
      "##charger": 1863,
      "sky": 1864,
      "triste": 1865,
      "singing": 1866,
      "programming": 1867,
      "paysage": 1868,
      "sauvegarde": 1869,
      "besoin": 1870,
      "island": 1871,
      "ap": 1872,
      "bl": 1873,
      "bis": 1874,
      "##ement": 1875,
      "##ipt": 1876,
      "##tè": 1877,
      "##bow": 1878,
      "##bile": 1879,
      "##ïs": 1880,
      "##enc": 1881,
      "##isse": 1882,
      "##ission": 1883,
      "undo": 1884,
      "##rasse": 1885,
      "##ulation": 1886,
      "arbre": 1887,
      "##storm": 1888,
      "tech": 1889,
      "pastè": 1890,
      "redo": 1891,
      "maïs": 1892,
      "mobile": 1893,
      "##ploiement": 1894,
      "wink": 1895,
      "castle": 1896,
      "feel": 1897,
      "human": 1898,
      "musculation": 1899,
      "corps": 1900,
      "rainbow": 1901,
      "regarder": 1902,
      "batterie": 1903,
      "maison": 1904,
      "receipt": 1905,
      "afficher": 1906,
      "bisou": 1907,
      "pastèque": 1908,
      "eglise": 1909,
      "fog": 1910,
      "lum": 1911,
      "pa": 1912,
      "rom": 1913,
      "wor": 1914,
      "île": 1915,
      "##ide": 1916,
      "##rir": 1917,
      "##li": 1918,
      "##dre": 1919,
      "##leep": 1920,
      "ench": 1921,
      "encher": 1922,
      "##urch": 1923,
      "##etre": 1924,
      "##agé": 1925,
      "##ager": 1926,
      "cool": 1927,
      "coff": 1928,
      "##cté": 1929,
      "thun": 1930,
      "##ending": 1931,
      "##crire": 1932,
      "rétablir": 1933,
      "super": 1934,
      "##duire": 1935,
      "command": 1936,
      "reven": 1937,
      "systeme": 1938,
      "amitie": 1939,
      "débogage": 1940,
      "insecte": 1941,
      "nerd": 1942,
      "style": 1943,
      "swimm": 1944,
      "coffee": 1945,
      "thunder": 1946,
      "ce": 1947,
      "liste": 1948,
      "money": 1949,
      "ora": 1950,
      "oiseau": 1951,
      "pri": 1952,
      "tv": 1953,
      "tâ": 1954,
      "##iquette": 1955,
      "##set": 1956,
      "##ré": 1957,
      "##ried": 1958,
      "##vé": 1959,
      "##day": 1960,
      "##ég": 1961,
      "retablir": 1962,
      "##itory": 1963,
      "##ository": 1964,
      "console": 1965,
      "bund": 1966,
      "ship": 1967,
      "audi": 1968,
      "aime": 1969,
      "poignée": 1970,
      "marche": 1971,
      "note": 1972,
      "repository": 1973,
      "account": 1974,
      "content": 1975,
      "skiing": 1976,
      "##lair": 1977,
      "downlo": 1978,
      "cards": 1979,
      "trefle": 1980,
      "recherche": 1981,
      "present": 1982,
      "package": 1983,
      "fusée": 1984,
      "birthday": 1985,
      "inquie": 1986,
      "orage": 1987,
      "audio": 1988,
      "emp": 1989,
      "four": 1990,
      "gran": 1991,
      "gateau": 1992,
      "mat": 1993,
      "match": 1994,
      "##iè": 1995,
      "##tra": 1996,
      "##èfle": 1997,
      "phone": 1998,
      "##urer": 1999,
      "##ches": 2000,
      "res": 2001,
      "refle": 2002,
      "reading": 2003,
      "##iller": 2004,
      "parf": 2005,
      "surpr": 2006,
      "##ention": 2007,
      "##quet": 2008,
      "##olaire": 2009,
      "prom": 2010,
      "##eek": 2011,
      "compass": 2012,
      "complete": 2013,
      "redu": 2014,
      "##umn": 2015,
      "##alling": 2016,
      "body": 2017,
      "autumn": 2018,
      "trèfle": 2019,
      "deployer": 2020,
      "esp": 2021,
      "programmer": 2022,
      "success": 2023,
      "attention": 2024,
      "speaker": 2025,
      "building": 2026,
      "prote": 2027,
      "need": 2028,
      "reçu": 2029,
      "grande": 2030,
      "ass": 2031,
      "bab": 2032,
      "broom": 2033,
      "din": 2034,
      "fon": 2035,
      "gift": 2036,
      "high": 2037,
      "lau": 2038,
      "page": 2039,
      "sans": 2040,
      "##ny": 2041,
      "##tte": 2042,
      "##ume": 2043,
      "##lifting": 2044,
      "##zy": 2045,
      "dead": 2046,
      "reque": 2047,
      "church": 2048,
      "##ompl": 2049,
      "term": 2050,
      "##estion": 2051,
      "debogage": 2052,
      "debugg": 2053,
      "flash": 2054,
      "salut": 2055,
      "connected": 2056,
      "tache": 2057,
      "accompl": 2058,
      "fete": 2059,
      "surfing": 2060,
      "backpack": 2061,
      "hors": 2062,
      "android": 2063,
      "embarrasse": 2064,
      "weightlifting": 2065,
      "dégoût": 2066,
      "enchère": 2067,
      "baby": 2068,
      "fonction": 2069,
      "requete": 2070,
      "debugging": 2071,
      "flashlight": 2072,
      "bic": 2073,
      "big": 2074,
      "bain": 2075,
      "day": 2076,
      "echecs": 2077,
      "fort": 2078,
      "feu": 2079,
      "hos": 2080,
      "light": 2081,
      "men": 2082,
      "pic": 2083,
      "taking": 2084,
      "task": 2085,
      "vague": 2086,
      "église": 2087,
      "##sc": 2088,
      "##era": 2089,
      "end": 2090,
      "chart": 2091,
      "fire": 2092,
      "##ated": 2093,
      "##union": 2094,
      "crazy": 2095,
      "##server": 2096,
      "##veloppement": 2097,
      "debug": 2098,
      "camera": 2099,
      "ecriture": 2100,
      "##appy": 2101,
      "trou": 2102,
      "commit": 2103,
      "neuron": 2104,
      "neural": 2105,
      "error": 2106,
      "install": 2107,
      "relieve": 2108,
      "publ": 2109,
      "friendship": 2110,
      "##finition": 2111,
      "techn": 2112,
      "feeling": 2113,
      "swimming": 2114,
      "prix": 2115,
      "bicycle": 2116,
      "hospital": 2117,
      "relieved": 2118,
      "bi": 2119,
      "bure": 2120,
      "drop": 2121,
      "is": 2122,
      "sleep": 2123,
      "tran": 2124,
      "##cast": 2125,
      "##ié": 2126,
      "##rise": 2127,
      "##vor": 2128,
      "##vrir": 2129,
      "##hing": 2130,
      "##fl": 2131,
      "##inter": 2132,
      "del": 2133,
      "##ause": 2134,
      "##cking": 2135,
      "conten": 2136,
      "auction": 2137,
      "favor": 2138,
      "pointer": 2139,
      "##ances": 2140,
      "##ielle": 2141,
      "coll": 2142,
      "accès": 2143,
      "pleurer": 2144,
      "journée": 2145,
      "sunrise": 2146,
      "what": 2147,
      "ouvrir": 2148,
      "disg": 2149,
      "helicoptere": 2150,
      "neutral": 2151,
      "ouverte": 2152,
      "upload": 2153,
      "romant": 2154,
      "thunderstorm": 2155,
      "neuronal": 2156,
      "bureau": 2157,
      "conteneur": 2158,
      "dri": 2159,
      "fête": 2160,
      "mettre": 2161,
      "que": 2162,
      "##eet": 2163,
      "##iment": 2164,
      "##watch": 2165,
      "##ft": 2166,
      "##ètre": 2167,
      "dev": 2168,
      "##leb": 2169,
      "##rate": 2170,
      "##row": 2171,
      "##veau": 2172,
      "tear": 2173,
      "rocket": 2174,
      "##umer": 2175,
      "##ccer": 2176,
      "requête": 2177,
      "soccer": 2178,
      "##ression": 2179,
      "##htub": 2180,
      "colle": 2181,
      "start": 2182,
      "bathtub": 2183,
      "avion": 2184,
      "sunset": 2185,
      "earth": 2186,
      "branche": 2187,
      "chronomètre": 2188,
      "##aiting": 2189,
      "panier": 2190,
      "stopwatch": 2191,
      "meditation": 2192,
      "api": 2193,
      "enchere": 2194,
      "celeb": 2195,
      "tâche": 2196,
      "download": 2197,
      "matin": 2198,
      "surprise": 2199,
      "disgust": 2200,
      "bar": 2201,
      "danc": 2202,
      "est": 2203,
      "eff": 2204,
      "gar": 2205,
      "send": 2206,
      "save": 2207,
      "ép": 2208,
      "##gée": 2209,
      "##lig": 2210,
      "##js": 2211,
      "##onent": 2212,
      "##isponible": 2213,
      "param": 2214,
      "cham": 2215,
      "##veil": 2216,
      "##lice": 2217,
      "voile": 2218,
      "component": 2219,
      "crash": 2220,
      "pod": 2221,
      "soap": 2222,
      "bouquet": 2223,
      "flight": 2224,
      "##aper": 2225,
      "femme": 2226,
      "television": 2227,
      "pointing": 2228,
      "petite": 2229,
      "##boat": 2230,
      "fishing": 2231,
      "noir": 2232,
      "smart": 2233,
      "indisponible": 2234,
      "branch": 2235,
      "expand": 2236,
      "hôpital": 2237,
      "chronometre": 2238,
      "newsp": 2239,
      "office": 2240,
      "neutre": 2241,
      "chargement": 2242,
      "soulagé": 2243,
      "critique": 2244,
      "intellig": 2245,
      "sailboat": 2246,
      "worried": 2247,
      "inquiet": 2248,
      "dancing": 2249,
      "chambre": 2250,
      "newspaper": 2251,
      "intelligence": 2252,
      "bais": 2253,
      "fat": 2254,
      "falling": 2255,
      "gestion": 2256,
      "home": 2257,
      "happy": 2258,
      "pu": 2259,
      "peur": 2260,
      "vir": 2261,
      "vente": 2262,
      "##ward": 2263,
      "deep": 2264,
      "##oure": 2265,
      "##ande": 2266,
      "##oute": 2267,
      "##atform": 2268,
      "##ages": 2269,
      "str": 2270,
      "plant": 2271,
      "platform": 2272,
      "clin": 2273,
      "shopp": 2274,
      "##ailable": 2275,
      "amoure": 2276,
      "access": 2277,
      "posture": 2278,
      "commande": 2279,
      "disc": 2280,
      "securite": 2281,
      "allumer": 2282,
      "into": 2283,
      "baisse": 2284,
      "virtu": 2285,
      "shopping": 2286,
      "amoureux": 2287,
      "gâteau": 2288,
      "kar": 2289,
      "loo": 2290,
      "non": 2291,
      "père": 2292,
      "sand": 2293,
      "session": 2294,
      "waiting": 2295,
      "œil": 2296,
      "##aî": 2297,
      "##aok": 2298,
      "##va": 2299,
      "##vre": 2300,
      "##éb": 2301,
      "##arp": 2302,
      "##omm": 2303,
      "déploiement": 2304,
      "##ired": 2305,
      "##plus": 2306,
      "##velle": 2307,
      "##ograph": 2308,
      "mem": 2309,
      "prise": 2310,
      "acces": 2311,
      "archive": 2312,
      "écriture": 2313,
      "##dule": 2314,
      "mégaphone": 2315,
      "##lai": 2316,
      "regarde": 2317,
      "security": 2318,
      "amitié": 2319,
      "listening": 2320,
      "soulage": 2321,
      "rappel": 2322,
      "alerte": 2323,
      "nouvelle": 2324,
      "schedule": 2325,
      "bras": 2326,
      "journee": 2327,
      "embarrassed": 2328,
      "trouver": 2329,
      "karaok": 2330,
      "bien": 2331,
      "hop": 2332,
      "homme": 2333,
      "jo": 2334,
      "land": 2335,
      "mission": 2336,
      "night": 2337,
      "ore": 2338,
      "pc": 2339,
      "ride": 2340,
      "sel": 2341,
      "tour": 2342,
      "wom": 2343,
      "zip": 2344,
      "##cle": 2345,
      "##pé": 2346,
      "##îner": 2347,
      "indi": 2348,
      "cop": 2349,
      "##rimer": 2350,
      "##iree": 2351,
      "##cked": 2352,
      "conduire": 2353,
      "short": 2354,
      "fichiers": 2355,
      "notes": 2356,
      "order": 2357,
      "soiree": 2358,
      "amaz": 2359,
      "##duction": 2360,
      "##ished": 2361,
      "##ience": 2362,
      "##beille": 2363,
      "corbeille": 2364,
      "payment": 2365,
      "supprimer": 2366,
      "portable": 2367,
      "gaming": 2368,
      "statut": 2369,
      "important": 2370,
      "##scape": 2371,
      "collection": 2372,
      "hopital": 2373,
      "landscape": 2374,
      "oreille": 2375,
      "self": 2376,
      "woman": 2377,
      "book": 2378,
      "ctr": 2379,
      "dorm": 2380,
      "full": 2381,
      "geek": 2382,
      "icon": 2383,
      "mom": 2384,
      "mise": 2385,
      "sale": 2386,
      "watching": 2387,
      "##ose": 2388,
      "##ture": 2389,
      "##ging": 2390,
      "##lage": 2391,
      "##list": 2392,
      "##hou": 2393,
      "delete": 2394,
      "##ank": 2395,
      "##atique": 2396,
      "##verrou": 2397,
      "##esse": 2398,
      "##ollage": 2399,
      "five": 2400,
      "thank": 2401,
      "condition": 2402,
      "cargo": 2403,
      "faible": 2404,
      "appl": 2405,
      "##ident": 2406,
      "poignee": 2407,
      "##tendu": 2408,
      "explo": 2409,
      "soir": 2410,
      "trav": 2411,
      "bebe": 2412,
      "sound": 2413,
      "sunny": 2414,
      "informatique": 2415,
      "hausse": 2416,
      "programmation": 2417,
      "node": 2418,
      "##monie": 2419,
      "neurones": 2420,
      "nuit": 2421,
      "déconne": 2422,
      "alert": 2423,
      "nouveau": 2424,
      "incident": 2425,
      "mother": 2426,
      "rouge": 2427,
      "text": 2428,
      "idea": 2429,
      "bundler": 2430,
      "laugh": 2431,
      "deadline": 2432,
      "picture": 2433,
      "ctrl": 2434,
      "dormir": 2435,
      "bonne": 2436,
      "cru": 2437,
      "cry": 2438,
      "dizz": 2439,
      "ep": 2440,
      "fur": 2441,
      "hook": 2442,
      "image": 2443,
      "lar": 2444,
      "mère": 2445,
      "ok": 2446,
      "peu": 2447,
      "sus": 2448,
      "sous": 2449,
      "slice": 2450,
      "##cer": 2451,
      "##ax": 2452,
      "##jet": 2453,
      "##èle": 2454,
      "##ind": 2455,
      "deg": 2456,
      "definition": 2457,
      "enreg": 2458,
      "##isation": 2459,
      "##orable": 2460,
      "##ilure": 2461,
      "##icle": 2462,
      "##agu": 2463,
      "##verser": 2464,
      "##rodu": 2465,
      "##acc": 2466,
      "##uss": 2467,
      "##usion": 2468,
      "##phon": 2469,
      "##ants": 2470,
      "##oses": 2471,
      "plaî": 2472,
      "production": 2473,
      "failure": 2474,
      "compose": 2475,
      "monter": 2476,
      "##iteur": 2477,
      "##itecture": 2478,
      "plane": 2479,
      "##ruption": 2480,
      "quel": 2481,
      "report": 2482,
      "reprodu": 2483,
      "scolaire": 2484,
      "architecture": 2485,
      "éclair": 2486,
      "loading": 2487,
      "campagne": 2488,
      "coupe": 2489,
      "developing": 2490,
      "humid": 2491,
      "adj": 2492,
      "adorable": 2493,
      "robotic": 2494,
      "##glages": 2495,
      "téléphone": 2496,
      "suppli": 2497,
      "view": 2498,
      "sécurité": 2499,
      "modèle": 2500,
      "valid": 2501,
      "article": 2502,
      "##ences": 2503,
      "termine": 2504,
      "driving": 2505,
      "cruise": 2506,
      "dizzy": 2507,
      "hooks": 2508,
      "enregist": 2509,
      "plaît": 2510,
      "suppliants": 2511,
      "air": 2512,
      "ast": 2513,
      "belle": 2514,
      "cake": 2515,
      "dial": 2516,
      "fuse": 2517,
      "gard": 2518,
      "game": 2519,
      "hy": 2520,
      "line": 2521,
      "lire": 2522,
      "log": 2523,
      "larm": 2524,
      "pur": 2525,
      "rid": 2526,
      "racc": 2527,
      "vac": 2528,
      "écrire": 2529,
      "##off": 2530,
      "##nage": 2531,
      "##mment": 2532,
      "##ere": 2533,
      "deal": 2534,
      "developpement": 2535,
      "##led": 2536,
      "##less": 2537,
      "##aller": 2538,
      "ensole": 2539,
      "##ative": 2540,
      "rem": 2541,
      "ref": 2542,
      "comment": 2543,
      "##acer": 2544,
      "##quin": 2545,
      "thinking": 2546,
      "there": 2547,
      "##ifier": 2548,
      "##ube": 2549,
      "clas": 2550,
      "##resse": 2551,
      "approu": 2552,
      "compresse": 2553,
      "tool": 2554,
      "##endu": 2555,
      "##tesse": 2556,
      "alarm": 2557,
      "maj": 2558,
      "vitesse": 2559,
      "sea": 2560,
      "repon": 2561,
      "##illante": 2562,
      "accord": 2563,
      "ecouter": 2564,
      "##aires": 2565,
      "tombe": 2566,
      "##shake": 2567,
      "notifications": 2568,
      "source": 2569,
      "étourdi": 2570,
      "partie": 2571,
      "handshake": 2572,
      "workfl": 2573,
      "indiff": 2574,
      "##ength": 2575,
      "succès": 2576,
      "##eeping": 2577,
      "deconne": 2578,
      "song": 2579,
      "brillante": 2580,
      "sauvegarder": 2581,
      "débran": 2582,
      "charge": 2583,
      "rapport": 2584,
      "intello": 2585,
      "##ulture": 2586,
      "artificielle": 2587,
      "paiement": 2588,
      "parfait": 2589,
      "menu": 2590,
      "strength": 2591,
      "soirée": 2592,
      "travail": 2593,
      "fusee": 2594,
      "garden": 2595,
      "hyg": 2596,
      "larmes": 2597,
      "riding": 2598,
      "raccour": 2599,
      "workflow": 2600,
      "bas": 2601,
      "bul": 2602,
      "bru": 2603,
      "cur": 2604,
      "cut": 2605,
      "cad": 2606,
      "dance": 2607,
      "ev": 2608,
      "jard": 2609,
      "k8": 2610,
      "lost": 2611,
      "look": 2612,
      "nav": 2613,
      "pre": 2614,
      "tri": 2615,
      "ut": 2616,
      "âgée": 2617,
      "##aine": 2618,
      "##ipp": 2619,
      "##ual": 2620,
      "##riel": 2621,
      "##diteur": 2622,
      "##ying": 2623,
      "##zz": 2624,
      "##enas": 2625,
      "##alth": 2626,
      "##atom": 2627,
      "##ature": 2628,
      "##isateur": 2629,
      "unav": 2630,
      "##ilisateur": 2631,
      "chale": 2632,
      "##rif": 2633,
      "anatom": 2634,
      "stand": 2635,
      "dune": 2636,
      "##mber": 2637,
      "clip": 2638,
      "arm": 2639,
      "faille": 2640,
      "appro": 2641,
      "apply": 2642,
      "##serte": 2643,
      "pere": 2644,
      "bouche": 2645,
      "flam": 2646,
      "cere": 2647,
      "boy": 2648,
      "pleure": 2649,
      "bath": 2650,
      "volume": 2651,
      "pouce": 2652,
      "contin": 2653,
      "télécharger": 2654,
      "ordre": 2655,
      "depend": 2656,
      "number": 2657,
      "offline": 2658,
      "sécurisé": 2659,
      "critical": 2660,
      "like": 2661,
      "gem": 2662,
      "geograph": 2663,
      "lumiere": 2664,
      "accomplie": 2665,
      "favorite": 2666,
      "romantic": 2667,
      "celebration": 2668,
      "podcast": 2669,
      "karaoke": 2670,
      "moment": 2671,
      "déconnecté": 2672,
      "curve": 2673,
      "cadenas": 2674,
      "jardin": 2675,
      "k8s": 2676,
      "trip": 2677,
      "utilisateur": 2678,
      "unavailable": 2679,
      "chaleur": 2680,
      "standing": 2681,
      "as": 2682,
      "béb": 2683,
      "dîner": 2684,
      "el": 2685,
      "fine": 2686,
      "gê": 2687,
      "green": 2688,
      "kid": 2689,
      "oce": 2690,
      "push": 2691,
      "pending": 2692,
      "rail": 2693,
      "sol": 2694,
      "som": 2695,
      "site": 2696,
      "tor": 2697,
      "user": 2698,
      "vali": 2699,
      "wash": 2700,
      "##eler": 2701,
      "##oil": 2702,
      "##ior": 2703,
      "##ring": 2704,
      "##ye": 2705,
      "##file": 2706,
      "##ording": 2707,
      "##iger": 2708,
      "##aut": 2709,
      "##asc": 2710,
      "##asing": 2711,
      "this": 2712,
      "##phab": 2713,
      "recording": 2714,
      "clap": 2715,
      "##ops": 2716,
      "aimer": 2717,
      "cacher": 2718,
      "récu": 2719,
      "alphab": 2720,
      "extre": 2721,
      "##ogue": 2722,
      "moi": 2723,
      "##ranche": 2724,
      "debranche": 2725,
      "tracking": 2726,
      "##acean": 2727,
      "grave": 2728,
      "pré": 2729,
      "##derly": 2730,
      "etourdi": 2731,
      "etiquette": 2732,
      "mere": 2733,
      "lover": 2734,
      "étiquette": 2735,
      "étoil": 2736,
      "development": 2737,
      "telephone": 2738,
      "telecharger": 2739,
      "rustacean": 2740,
      "##ivery": 2741,
      "visit": 2742,
      "dockerfile": 2743,
      "profil": 2744,
      "profession": 2745,
      "baiss": 2746,
      "modele": 2747,
      "model": 2748,
      "lumière": 2749,
      "revenue": 2750,
      "espace": 2751,
      "delivery": 2752,
      "devops": 2753,
      "smartphone": 2754,
      "virtual": 2755,
      "looking": 2756,
      "##pérer": 2757,
      "evening": 2758,
      "bébé": 2759,
      "elderly": 2760,
      "gêné": 2761,
      "ocean": 2762,
      "rails": 2763,
      "valide": 2764,
      "washing": 2765,
      "récupérer": 2766,
      "extreme": 2767,
      "professionnel": 2768,
      "aj": 2769,
      "bille": 2770,
      "cine": 2771,
      "danger": 2772,
      "eure": 2773,
      "ecrire": 2774,
      "hal": 2775,
      "pie": 2776,
      "pos": 2777,
      "sen": 2778,
      "set": 2779,
      "tend": 2780,
      "tact": 2781,
      "tente": 2782,
      "vom": 2783,
      "vete": 2784,
      "way": 2785,
      "##na": 2786,
      "##linux": 2787,
      "##ware": 2788,
      "##ys": 2789,
      "##ka": 2790,
      "##otion": 2791,
      "##othing": 2792,
      "##ree": 2793,
      "##ream": 2794,
      "##outeur": 2795,
      "phys": 2796,
      "enne": 2797,
      "read": 2798,
      "unpl": 2799,
      "unlo": 2800,
      "##illé": 2801,
      "##ices": 2802,
      "##icale": 2803,
      "parent": 2804,
      "parser": 2805,
      "##rocher": 2806,
      "##asy": 2807,
      "##pping": 2808,
      "##olog": 2809,
      "##ctor": 2810,
      "stream": 2811,
      "plu": 2812,
      "synt": 2813,
      "##ulte": 2814,
      "clothing": 2815,
      "faq": 2816,
      "toi": 2817,
      "réunion": 2818,
      "##itement": 2819,
      "orch": 2820,
      "debout": 2821,
      "traitement": 2822,
      "filtre": 2823,
      "mean": 2824,
      "suse": 2825,
      "courbe": 2826,
      "price": 2827,
      "scan": 2828,
      "science": 2829,
      "glo": 2830,
      "##ocon": 2831,
      "please": 2832,
      "##chargement": 2833,
      "archlinux": 2834,
      "ecole": 2835,
      "desc": 2836,
      "annon": 2837,
      "services": 2838,
      "editing": 2839,
      "angularjs": 2840,
      "adult": 2841,
      "adulte": 2842,
      "visi": 2843,
      "eye": 2844,
      "working": 2845,
      "impression": 2846,
      "securise": 2847,
      "installer": 2848,
      "turn": 2849,
      "profile": 2850,
      "agee": 2851,
      "sportif": 2852,
      "##ugged": 2853,
      "visibilite": 2854,
      "visibilité": 2855,
      "crois": 2856,
      "schema": 2857,
      "checklist": 2858,
      "idee": 2859,
      "promotion": 2860,
      "fonctionnal": 2861,
      "publier": 2862,
      "technolog": 2863,
      "fatig": 2864,
      "jointe": 2865,
      "amazon": 2866,
      "conditionnel": 2867,
      "degout": 2868,
      "quelqu": 2869,
      "deconnecte": 2870,
      "ajouter": 2871,
      "billet": 2872,
      "cinema": 2873,
      "eureka": 2874,
      "poste": 2875,
      "senior": 2876,
      "tendance": 2877,
      "tactile": 2878,
      "vomir": 2879,
      "vetement": 2880,
      "##outeurs": 2881,
      "readme": 2882,
      "unplugged": 2883,
      "parents": 2884,
      "syntax": 2885,
      "technologie": 2886,
      "ci": 2887,
      "cd": 2888,
      "csh": 2889,
      "dro": 2890,
      "fest": 2891,
      "fru": 2892,
      "gir": 2893,
      "id": 2894,
      "ios": 2895,
      "iphone": 2896,
      "kn": 2897,
      "kit": 2898,
      "lon": 2899,
      "lance": 2900,
      "md": 2901,
      "pale": 2902,
      "rent": 2903,
      "sil": 2904,
      "sent": 2905,
      "sql": 2906,
      "sable": 2907,
      "ts": 2908,
      "tête": 2909,
      "vul": 2910,
      "vous": 2911,
      "vête": 2912,
      "##cut": 2913,
      "##coup": 2914,
      "##ock": 2915,
      "##nch": 2916,
      "##tres": 2917,
      "##tps": 2918,
      "##gee": 2919,
      "##graph": 2920,
      "##vise": 2921,
      "##ld": 2922,
      "##ètres": 2923,
      "##kward": 2924,
      "##erie": 2925,
      "##erve": 2926,
      "##teg": 2927,
      "photograph": 2928,
      "enerve": 2929,
      "##atar": 2930,
      "repe": 2931,
      "remin": 2932,
      "reste": 2933,
      "reunion": 2934,
      "##orage": 2935,
      "##icerie": 2936,
      "##eting": 2937,
      "integ": 2938,
      "chan": 2939,
      "##quipe": 2940,
      "##ppy": 2941,
      "stock": 2942,
      "storage": 2943,
      "plug": 2944,
      "##ments": 2945,
      "appoint": 2946,
      "##place": 2947,
      "tete": 2948,
      "room": 2949,
      "files": 2950,
      "##arding": 2951,
      "spin": 2952,
      "répon": 2953,
      "##ouper": 2954,
      "trash": 2955,
      "windy": 2956,
      "chaude": 2957,
      "meeting": 2958,
      "ill": 2959,
      "verrou": 2960,
      "##asses": 2961,
      "boat": 2962,
      "boarding": 2963,
      "##ffe": 2964,
      "école": 2965,
      "écouter": 2966,
      "##minine": 2967,
      "awkward": 2968,
      "feature": 2969,
      "https": 2970,
      "##tails": 2971,
      "maintenant": 2972,
      "avatar": 2973,
      "##glasses": 2974,
      "volcanique": 2975,
      "element": 2976,
      "télévision": 2977,
      "##upé": 2978,
      "emball": 2979,
      "hands": 2980,
      "indust": 2981,
      "instant": 2982,
      "branché": 2983,
      "clock": 2984,
      "direction": 2985,
      "attach": 2986,
      "receive": 2987,
      "nudge": 2988,
      "financ": 2989,
      "finding": 2990,
      "confir": 2991,
      "insect": 2992,
      "observer": 2993,
      "public": 2994,
      "status": 2995,
      "importante": 2996,
      "artificial": 2997,
      "beaucoup": 2998,
      "journey": 2999,
      "supervise": 3000,
      "revenir": 3001,
      "respon": 3002,
      "reflech": 3003,
      "dining": 3004,
      "bike": 3005,
      "paramètres": 3006,
      "puppy": 3007,
      "memory": 3008,
      "shortcut": 3009,
      "selfie": 3010,
      "##houette": 3011,
      "laughing": 3012,
      "vacances": 3013,
      "débranché": 3014,
      "bulle": 3015,
      "brume": 3016,
      "csharp": 3017,
      "festive": 3018,
      "fruit": 3019,
      "girl": 3020,
      "idée": 3021,
      "long": 3022,
      "lancement": 3023,
      "palette": 3024,
      "silhouette": 3025,
      "sentier": 3026,
      "vêtement": 3027,
      "repeat": 3028,
      "reminder": 3029,
      "appointment": 3030,
      "apr": 3031,
      "bagu": 3032,
      "cin": 3033,
      "cell": 3034,
      "cré": 3035,
      "di": 3036,
      "der": 3037,
      "fit": 3038,
      "félic": 3039,
      "gre": 3040,
      "jog": 3041,
      "last": 3042,
      "mau": 3043,
      "morn": 3044,
      "nause": 3045,
      "pret": 3046,
      "pense": 3047,
      "roses": 3048,
      "tot": 3049,
      "ur": 3050,
      "yml": 3051,
      "##cam": 3052,
      "##cell": 3053,
      "##occ": 3054,
      "##nier": 3055,
      "##ness": 3056,
      "##air": 3057,
      "##umb": 3058,
      "##ght": 3059,
      "##vid": 3060,
      "##jour": 3061,
      "##mpe": 3062,
      "##ér": 3063,
      "##ber": 3064,
      "##full": 3065,
      "##îte": 3066,
      "##erent": 3067,
      "deverrou": 3068,
      "##onom": 3069,
      "##arer": 3070,
      "##lever": 3071,
      "##aning": 3072,
      "##reinte": 3073,
      "reign": 3074,
      "##rait": 3075,
      "##icol": 3076,
      "##ething": 3077,
      "gene": 3078,
      "##vere": 3079,
      "##vers": 3080,
      "##vert": 3081,
      "chap": 3082,
      "##aute": 3083,
      "##uster": 3084,
      "##iration": 3085,
      "##oming": 3086,
      "##uting": 3087,
      "##rire": 3088,
      "fix": 3089,
      "##cting": 3090,
      "that": 3091,
      "thumb": 3092,
      "due": 3093,
      "##pecting": 3094,
      "plier": 3095,
      "planter": 3096,
      "laver": 3097,
      "appeler": 3098,
      "##plier": 3099,
      "tempe": 3100,
      "computing": 3101,
      "##ids": 3102,
      "poids": 3103,
      "todo": 3104,
      "##anced": 3105,
      "rédu": 3106,
      "réglages": 3107,
      "achat": 3108,
      "excell": 3109,
      "expecting": 3110,
      "soft": 3111,
      "heat": 3112,
      "health": 3113,
      "severe": 3114,
      "courrier": 3115,
      "mouiller": 3116,
      "##assure": 3117,
      "soulever": 3118,
      "sourire": 3119,
      "boite": 3120,
      "boîte": 3121,
      "##ize": 3122,
      "##apse": 3123,
      "eclair": 3124,
      "bathroom": 3125,
      "helm": 3126,
      "webcam": 3127,
      "count": 3128,
      "automated": 3129,
      "telephon": 3130,
      "deployee": 3131,
      "creep": 3132,
      "css3": 3133,
      "handw": 3134,
      "succes": 3135,
      "actif": 3136,
      "active": 3137,
      "actual": 3138,
      "portrait": 3139,
      "relig": 3140,
      "bricol": 3141,
      "games": 3142,
      "protég": 3143,
      "visibility": 3144,
      "ouvert": 3145,
      "intég": 3146,
      "blow": 3147,
      "empty": 3148,
      "empreinte": 3149,
      "successfull": 3150,
      "protege": 3151,
      "assomm": 3152,
      "accomplished": 3153,
      "debugger": 3154,
      "collapse": 3155,
      "tears": 3156,
      "##vaise": 3157,
      "individ": 3158,
      "crying": 3159,
      "enregistrer": 3160,
      "classe": 3161,
      "indifferent": 3162,
      "continue": 3163,
      "something": 3164,
      "alphabet": 3165,
      "globe": 3166,
      "après": 3167,
      "baguette": 3168,
      "diy": 3169,
      "dernier": 3170,
      "fitness": 3171,
      "great": 3172,
      "jogging": 3173,
      "mauvaise": 3174,
      "morning": 3175,
      "pretty": 3176,
      "thumbs": 3177,
      "tempete": 3178,
      "excellent": 3179,
      "healthy": 3180,
      "creepy": 3181,
      "bricolage": 3182,
      "protégé": 3183,
      "successfully": 3184,
      "assommé": 3185,
      "by": 3186,
      "bâ": 3187,
      "blo": 3188,
      "cr": 3189,
      "cé": 3190,
      "cass": 3191,
      "catching": 3192,
      "cplus": 3193,
      "dot": 3194,
      "eruption": 3195,
      "form": 3196,
      "gust": 3197,
      "give": 3198,
      "hes": 3199,
      "hack": 3200,
      "hiver": 3201,
      "ml": 3202,
      "mam": 3203,
      "nice": 3204,
      "ori": 3205,
      "sat": 3206,
      "sad": 3207,
      "solaire": 3208,
      "top": 3209,
      "want": 3210,
      "wake": 3211,
      "yout": 3212,
      "éditeur": 3213,
      "##cial": 3214,
      "##nie": 3215,
      "##aille": 3216,
      "##iche": 3217,
      "##sw": 3218,
      "##timent": 3219,
      "##ric": 3220,
      "##vir": 3221,
      "##ling": 3222,
      "##hat": 3223,
      "##wth": 3224,
      "##well": 3225,
      "##zipp": 3226,
      "##ôle": 3227,
      "##ûler": 3228,
      "deploiement": 3229,
      "delai": 3230,
      "deserte": 3231,
      "##lex": 3232,
      "entra": 3233,
      "envir": 3234,
      "##att": 3235,
      "reveil": 3236,
      "##ils": 3237,
      "##rable": 3238,
      "##itant": 3239,
      "##etres": 3240,
      "##agnie": 3241,
      "invis": 3242,
      "chiff": 3243,
      "##thent": 3244,
      "##ned": 3245,
      "##agement": 3246,
      "##veille": 3247,
      "##ctron": 3248,
      "délai": 3249,
      "throw": 3250,
      "anx": 3251,
      "state": 3252,
      "##abil": 3253,
      "provision": 3254,
      "##rest": 3255,
      "audition": 3256,
      "authent": 3257,
      "comparing": 3258,
      "compagnie": 3259,
      "##idence": 3260,
      "terrif": 3261,
      "togg": 3262,
      "monte": 3263,
      "fraiche": 3264,
      "passw": 3265,
      "##ousseau": 3266,
      "##enda": 3267,
      "redhat": 3268,
      "réfle": 3269,
      "réduire": 3270,
      "viol": 3271,
      "##estration": 3272,
      "social": 3273,
      "plante": 3274,
      "jeux": 3275,
      "##resso": 3276,
      "##onnement": 3277,
      "##onnected": 3278,
      "forest": 3279,
      "quelle": 3280,
      "flocon": 3281,
      "danse": 3282,
      "##issant": 3283,
      "amis": 3284,
      "pleurs": 3285,
      "away": 3286,
      "trousseau": 3287,
      "footpr": 3288,
      "dansante": 3289,
      "training": 3290,
      "contro": 3291,
      "html5": 3292,
      "forker": 3293,
      "terminé": 3294,
      "##nerabil": 3295,
      "##box": 3296,
      "cord": 3297,
      "regard": 3298,
      "disponible": 3299,
      "messager": 3300,
      "expression": 3301,
      "progression": 3302,
      "signaler": 3303,
      "shoot": 3304,
      "##ugnant": 3305,
      "speaking": 3306,
      "bright": 3307,
      "brûler": 3308,
      "agric": 3309,
      "agenda": 3310,
      "panne": 3311,
      "affiche": 3312,
      "spatial": 3313,
      "gros": 3314,
      "growth": 3315,
      "medical": 3316,
      "rechercher": 3317,
      "automatise": 3318,
      "friends": 3319,
      "uploading": 3320,
      "compresser": 3321,
      "compression": 3322,
      "texte": 3323,
      "validé": 3324,
      "superm": 3325,
      "##rémonie": 3326,
      "bundling": 3327,
      "diner": 3328,
      "commits": 3329,
      "parametres": 3330,
      "disconnected": 3331,
      "applau": 3332,
      "exploite": 3333,
      "suspen": 3334,
      "coupee": 3335,
      "purring": 3336,
      "ensoleille": 3337,
      "major": 3338,
      "geographique": 3339,
      "visiter": 3340,
      "orchestration": 3341,
      "descente": 3342,
      "visio": 3343,
      "vulnerabil": 3344,
      "instantan": 3345,
      "bâtiment": 3346,
      "cérémonie": 3347,
      "cassé": 3348,
      "cplusplus": 3349,
      "dotnet": 3350,
      "format": 3351,
      "hacked": 3352,
      "maman": 3353,
      "orient": 3354,
      "satur": 3355,
      "youtube": 3356,
      "##ailles": 3357,
      "##zipper": 3358,
      "invisible": 3359,
      "chiffre": 3360,
      "toggle": 3361,
      "password": 3362,
      "réflexion": 3363,
      "footprint": 3364,
      "messagerie": 3365,
      "agriculture": 3366,
      "bur": 3367,
      "bro": 3368,
      "bée": 3369,
      "ball": 3370,
      "bask": 3371,
      "dail": 3372,
      "emer": 3373,
      "fé": 3374,
      "fen": 3375,
      "fasc": 3376,
      "low": 3377,
      "lad": 3378,
      "loc": 3379,
      "mig": 3380,
      "mad": 3381,
      "mass": 3382,
      "mind": 3383,
      "nest": 3384,
      "os": 3385,
      "pra": 3386,
      "pous": 3387,
      "rh": 3388,
      "rar": 3389,
      "rend": 3390,
      "raf": 3391,
      "raz": 3392,
      "sure": 3393,
      "signe": 3394,
      "sais": 3395,
      "tent": 3396,
      "vendu": 3397,
      "watch": 3398,
      "word": 3399,
      "ém": 3400,
      "##ech": 3401,
      "##cible": 3402,
      "##cution": 3403,
      "##ov": 3404,
      "##oot": 3405,
      "##national": 3406,
      "##im": 3407,
      "##upe": 3408,
      "##get": 3409,
      "##ping": 3410,
      "##ven": 3411,
      "##watching": 3412,
      "##ject": 3413,
      "##moire": 3414,
      "##bour": 3415,
      "##erence": 3416,
      "##ought": 3417,
      "##ond": 3418,
      "##ote": 3419,
      "##ats": 3420,
      "##até": 3421,
      "##isée": 3422,
      "rej": 3423,
      "repl": 3424,
      "rela": 3425,
      "rebour": 3426,
      "##orter": 3427,
      "##ets": 3428,
      "##etplace": 3429,
      "##aging": 3430,
      "ins": 3431,
      "intr": 3432,
      "generative": 3433,
      "change": 3434,
      "##old": 3435,
      "développement": 3436,
      "déplier": 3437,
      "thought": 3438,
      "plum": 3439,
      "concer": 3440,
      "care": 3441,
      "lave": 3442,
      "clair": 3443,
      "appli": 3444,
      "compil": 3445,
      "neov": 3446,
      "capt": 3447,
      "passe": 3448,
      "réveil": 3449,
      "réuss": 3450,
      "moving": 3451,
      "hearing": 3452,
      "winter": 3453,
      "filante": 3454,
      "court": 3455,
      "chemin": 3456,
      "distance": 3457,
      "cash": 3458,
      "trend": 3459,
      "trending": 3460,
      "feminine": 3461,
      "marketplace": 3462,
      "##sheet": 3463,
      "##contra": 3464,
      "mémoire": 3465,
      "automation": 3466,
      "vuejs": 3467,
      "surfboard": 3468,
      "partly": 3469,
      "deployment": 3470,
      "deployed": 3471,
      "force": 3472,
      "info": 3473,
      "rainy": 3474,
      "smack": 3475,
      "small": 3476,
      "hide": 3477,
      "hike": 3478,
      "tropical": 3479,
      "##argne": 3480,
      "potent": 3481,
      "expired": 3482,
      "profond": 3483,
      "etoilee": 3484,
      "balade": 3485,
      "international": 3486,
      "speech": 3487,
      "decollage": 3488,
      "containerize": 3489,
      "décollage": 3490,
      "confus": 3491,
      "gross": 3492,
      "sécurisée": 3493,
      "lim": 3494,
      "livre": 3495,
      "object": 3496,
      "presse": 3497,
      "birdwatching": 3498,
      "composants": 3499,
      "blown": 3500,
      "commander": 3501,
      "##iène": 3502,
      "protection": 3503,
      "fonctionne": 3504,
      "lighting": 3505,
      "menage": 3506,
      "romantique": 3507,
      "effra": 3508,
      "effacer": 3509,
      "garee": 3510,
      "puzz": 3511,
      "tournage": 3512,
      "sales": 3513,
      "reproducible": 3514,
      "éclairs": 3515,
      "validated": 3516,
      "commenter": 3517,
      "repondre": 3518,
      "hygiène": 3519,
      "raccourci": 3520,
      "dependances": 3521,
      "piece": 3522,
      "unlock": 3523,
      "fonctionnalité": 3524,
      "fatigue": 3525,
      "billets": 3526,
      "confirmer": 3527,
      "##onomiser": 3528,
      "baskets": 3529,
      "daily": 3530,
      "lady": 3531,
      "pousse": 3532,
      "rhel": 3533,
      "rafale": 3534,
      "émission": 3535,
      "reply": 3536,
      "relax": 3537,
      "rebours": 3538,
      "intrusion": 3539,
      "changements": 3540,
      "plumes": 3541,
      "concert": 3542,
      "appliquer": 3543,
      "neovim": 3544,
      "speechless": 3545,
      "puzzled": 3546,
      "banc": 3547,
      "bice": 3548,
      "cy": 3549,
      "clic": 3550,
      "cue": 3551,
      "dom": 3552,
      "dow": 3553,
      "eche": 3554,
      "fu": 3555,
      "fing": 3556,
      "fig": 3557,
      "fun": 3558,
      "father": 3559,
      "hu": 3560,
      "hon": 3561,
      "hard": 3562,
      "keeping": 3563,
      "lif": 3564,
      "nage": 3565,
      "nos": 3566,
      "oper": 3567,
      "press": 3568,
      "pente": 3569,
      "rav": 3570,
      "rendre": 3571,
      "tou": 3572,
      "ton": 3573,
      "wra": 3574,
      "well": 3575,
      "équipe": 3576,
      "être": 3577,
      "##cou": 3578,
      "##cieux": 3579,
      "##oir": 3580,
      "##oft": 3581,
      "##sent": 3582,
      "##sact": 3583,
      "##soft": 3584,
      "##gy": 3585,
      "##por": 3586,
      "##press": 3587,
      "##rée": 3588,
      "##vite": 3589,
      "##lie": 3590,
      "##mé": 3591,
      "##yé": 3592,
      "##book": 3593,
      "##fri": 3594,
      "##fire": 3595,
      "##ège": 3596,
      "##ken": 3597,
      "##kind": 3598,
      "##ême": 3599,
      "dechar": 3600,
      "details": 3601,
      "##ouv": 3602,
      "##ony": 3603,
      "##any": 3604,
      "##read": 3605,
      "enten": 3606,
      "##atif": 3607,
      "rechar": 3608,
      "reuss": 3609,
      "##ilie": 3610,
      "##ieuse": 3611,
      "##icile": 3612,
      "##icating": 3613,
      "genial": 3614,
      "invo": 3615,
      "invite": 3616,
      "##verse": 3617,
      "cher": 3618,
      "chang": 3619,
      "chill": 3620,
      "coche": 3621,
      "##aux": 3622,
      "##olique": 3623,
      "##ompress": 3624,
      "##ctible": 3625,
      "définition": 3626,
      "anony": 3627,
      "##philie": 3628,
      "stron": 3629,
      "strate": 3630,
      "convers": 3631,
      "##mentaires": 3632,
      "##illette": 3633,
      "sheet": 3634,
      "sharp": 3635,
      "team": 3636,
      "teasing": 3637,
      "##istant": 3638,
      "roi": 3639,
      "case": 3640,
      "##ancolique": 3641,
      "rép": 3642,
      "réserver": 3643,
      "exé": 3644,
      "extr": 3645,
      "extra": 3646,
      "requise": 3647,
      "move": 3648,
      "planifier": 3649,
      "trail": 3650,
      "traverser": 3651,
      "being": 3652,
      "mains": 3653,
      "##ally": 3654,
      "prie": 3655,
      "vert": 3656,
      "boucle": 3657,
      "##issance": 3658,
      "mankind": 3659,
      "soucieux": 3660,
      "##ivement": 3661,
      "bois": 3662,
      "connecté": 3663,
      "ecoute": 3664,
      "écouteurs": 3665,
      "##loge": 3666,
      "coupée": 3667,
      "hello": 3668,
      "##bug": 3669,
      "couches": 3670,
      "coucou": 3671,
      "##pineux": 3672,
      "méd": 3673,
      "breach": 3674,
      "licence": 3675,
      "##rouille": 3676,
      "partielle": 3677,
      "terminée": 3678,
      "##canique": 3679,
      "creer": 3680,
      "microsoft": 3681,
      "horloge": 3682,
      "##nerre": 3683,
      "##nerie": 3684,
      "forte": 3685,
      "diffusion": 3686,
      "corpor": 3687,
      "playbook": 3688,
      "canne": 3689,
      "tempor": 3690,
      "##riere": 3691,
      "emballe": 3692,
      "embrouille": 3693,
      "indicating": 3694,
      "instable": 3695,
      "petits": 3696,
      "champignons": 3697,
      "attache": 3698,
      "fermé": 3699,
      "supplie": 3700,
      "affaires": 3701,
      "élément": 3702,
      "decline": 3703,
      "sonnerie": 3704,
      "tableau": 3705,
      "agre": 3706,
      "clear": 3707,
      "modifier": 3708,
      "automatique": 3709,
      "automatiser": 3710,
      "packing": 3711,
      "##itations": 3712,
      "##finitivement": 3713,
      "##issement": 3714,
      "pair": 3715,
      "resort": 3716,
      "reflexion": 3717,
      "completed": 3718,
      "assistant": 3719,
      "launch": 3720,
      "bient": 3721,
      "transact": 3722,
      "delire": 3723,
      "favori": 3724,
      "collège": 3725,
      "queue": 3726,
      "celebrate": 3727,
      "smarty": 3728,
      "memoire": 3729,
      "tourne": 3730,
      "indiquer": 3731,
      "applause": 3732,
      "larve": 3733,
      "reproductible": 3734,
      "éclairer": 3735,
      "humidité": 3736,
      "adjust": 3737,
      "viewing": 3738,
      "astron": 3739,
      "approuve": 3740,
      "approuvé": 3741,
      "compressed": 3742,
      "navire": 3743,
      "anatomy": 3744,
      "ceremonie": 3745,
      "étoilé": 3746,
      "halt": 3747,
      "physique": 3748,
      "enneige": 3749,
      "annoncer": 3750,
      "know": 3751,
      "kitty": 3752,
      "integration": 3753,
      "plugin": 3754,
      "deverrouiller": 3755,
      "chapel": 3756,
      "réduite": 3757,
      "telephonique": 3758,
      "religieuse": 3759,
      "blowing": 3760,
      "bancaire": 3761,
      "biceps": 3762,
      "cyber": 3763,
      "cueillette": 3764,
      "domicile": 3765,
      "downt": 3766,
      "echeance": 3767,
      "fuite": 3768,
      "finger": 3769,
      "figure": 3770,
      "funny": 3771,
      "huh": 3772,
      "honte": 3773,
      "life": 3774,
      "nageur": 3775,
      "nosql": 3776,
      "operation": 3777,
      "pentest": 3778,
      "ravi": 3779,
      "tonnerre": 3780,
      "##friend": 3781,
      "dechargee": 3782,
      "entendre": 3783,
      "recharge": 3784,
      "invoice": 3785,
      "changes": 3786,
      "##ompresser": 3787,
      "strong": 3788,
      "conversation": 3789,
      "extrême": 3790,
      "partiellement": 3791,
      "corporate": 3792,
      "transaction": 3793,
      "bin": 3794,
      "bid": 3795,
      "best": 3796,
      "bell": 3797,
      "bogue": 3798,
      "cal": 3799,
      "done": 3800,
      "drow": 3801,
      "fel": 3802,
      "garde": 3803,
      "gaz": 3804,
      "gare": 3805,
      "hil": 3806,
      "ici": 3807,
      "min": 3808,
      "mas": 3809,
      "nager": 3810,
      "oiseaux": 3811,
      "pen": 3812,
      "pis": 3813,
      "pir": 3814,
      "ris": 3815,
      "role": 3816,
      "raging": 3817,
      "sain": 3818,
      "vig": 3819,
      "wire": 3820,
      "xo": 3821,
      "éner": 3822,
      "éruption": 3823,
      "érable": 3824,
      "##ez": 3825,
      "##cin": 3826,
      "##cis": 3827,
      "##cine": 3828,
      "##cry": 3829,
      "##nial": 3830,
      "##ich": 3831,
      "##sy": 3832,
      "##sie": 3833,
      "##toire": 3834,
      "##xo": 3835,
      "##gation": 3836,
      "##gry": 3837,
      "##genc": 3838,
      "##pus": 3839,
      "##pendu": 3840,
      "##parer": 3841,
      "##rative": 3842,
      "##riger": 3843,
      "##vieux": 3844,
      "##lire": 3845,
      "##langer": 3846,
      "##lats": 3847,
      "##wich": 3848,
      "##ds": 3849,
      "##male": 3850,
      "##bum": 3851,
      "##fy": 3852,
      "##flé": 3853,
      "##ker": 3854,
      "##erences": 3855,
      "##ouill": 3856,
      "##ener": 3857,
      "##aliser": 3858,
      "encry": 3859,
      "##chant": 3860,
      "##chain": 3861,
      "##isee": 3862,
      "regul": 3863,
      "abrit": 3864,
      "##ionner": 3865,
      "unst": 3866,
      "##iling": 3867,
      "genre": 3868,
      "gentle": 3869,
      "insp": 3870,
      "##esser": 3871,
      "##esome": 3872,
      "genere": 3873,
      "##igation": 3874,
      "cho": 3875,
      "chant": 3876,
      "chape": 3877,
      "coeur": 3878,
      "##rogation": 3879,
      "##ently": 3880,
      "##ded": 3881,
      "##decin": 3882,
      "##ssing": 3883,
      "##rière": 3884,
      "génial": 3885,
      "généré": 3886,
      "générative": 3887,
      "déverrou": 3888,
      "délire": 3889,
      "ango": 3890,
      "angry": 3891,
      "storm": 3892,
      "stress": 3893,
      "##ception": 3894,
      "placer": 3895,
      "leak": 3896,
      "uneasy": 3897,
      "recue": 3898,
      "##ulée": 3899,
      "caresser": 3900,
      "laisse": 3901,
      "cluster": 3902,
      "arra": 3903,
      "arrière": 3904,
      "shout": 3905,
      "pool": 3906,
      "poker": 3907,
      "monna": 3908,
      "monsie": 3909,
      "##serving": 3910,
      "régul": 3911,
      "réflé": 3912,
      "réception": 3913,
      "album": 3914,
      "debit": 3915,
      "planifi": 3916,
      "trajet": 3917,
      "bete": 3918,
      "chauffe": 3919,
      "vers": 3920,
      "perman": 3921,
      "boulanger": 3922,
      "flying": 3923,
      "glance": 3924,
      "manette": 3925,
      "colère": 3926,
      "colors": 3927,
      "swag": 3928,
      "swipe": 3929,
      "taches": 3930,
      "taquin": 3931,
      "batiment": 3932,
      "merging": 3933,
      "awesome": 3934,
      "campfire": 3935,
      "female": 3936,
      "##cule": 3937,
      "##shine": 3938,
      "annulée": 3939,
      "##buds": 3940,
      "goofy": 3941,
      "graphique": 3942,
      "editer": 3943,
      "ménage": 3944,
      "breez": 3945,
      "sunglasses": 3946,
      "sunshine": 3947,
      "terrain": 3948,
      "add": 3949,
      "robotique": 3950,
      "robotisé": 3951,
      "cycliste": 3952,
      "##iene": 3953,
      "haul": 3954,
      "keychain": 3955,
      "electron": 3956,
      "téléchargement": 3957,
      "scripting": 3958,
      "forêt": 3959,
      "corriger": 3960,
      "##mony": 3961,
      "raining": 3962,
      "sms": 3963,
      "smiling": 3964,
      "visage": 3965,
      "tempête": 3966,
      "earn": 3967,
      "earbuds": 3968,
      "restroom": 3969,
      "doux": 3970,
      "tropicale": 3971,
      "securisee": 3972,
      "feru": 3973,
      "interrogation": 3974,
      "activer": 3975,
      "decrocher": 3976,
      "decouper": 3977,
      "foliage": 3978,
      "relire": 3979,
      "sortie": 3980,
      "déployée": 3981,
      "scared": 3982,
      "gamer": 3983,
      "conference": 3984,
      "grosse": 3985,
      "ventre": 3986,
      "observing": 3987,
      "nerdy": 3988,
      "##sport": 3989,
      "fusionner": 3990,
      "income": 3991,
      "artificiel": 3992,
      "crossing": 3993,
      "malade": 3994,
      "needed": 3995,
      "reçue": 3996,
      "royalty": 3997,
      "bravo": 3998,
      "sailing": 3999,
      "apres": 4000,
      "world": 4001,
      "residence": 4002,
      "promo": 4003,
      "promener": 4004,
      "reduite": 4005,
      "espresso": 4006,
      "successful": 4007,
      "protected": 4008,
      "assomme": 4009,
      "picking": 4010,
      "publish": 4011,
      "technical": 4012,
      "sleeping": 4013,
      "transport": 4014,
      "conteneuriser": 4015,
      "barre": 4016,
      "crashed": 4017,
      "virtuelle": 4018,
      "sandwich": 4019,
      "copier": 4020,
      "sounds": 4021,
      "furieux": 4022,
      "suspendu": 4023,
      "humidite": 4024,
      "dialogue": 4025,
      "commenting": 4026,
      "tools": 4027,
      "travailler": 4028,
      "hygiene": 4029,
      "raccourcis": 4030,
      "navigation": 4031,
      "anatomie": 4032,
      "flamme": 4033,
      "ceremony": 4034,
      "torch": 4035,
      "torche": 4036,
      "validee": 4037,
      "pluvieux": 4038,
      "impressionné": 4039,
      "croisière": 4040,
      "syntaxe": 4041,
      "chanson": 4042,
      "spinning": 4043,
      "emballé": 4044,
      "attachment": 4045,
      "received": 4046,
      "response": 4047,
      "reflechir": 4048,
      "shortcuts": 4049,
      "software": 4050,
      "countdown": 4051,
      "actualisation": 4052,
      "intégration": 4053,
      "individu": 4054,
      "environnement": 4055,
      "danseuse": 4056,
      "controle": 4057,
      "shooting": 4058,
      "emergenc": 4059,
      "fenetre": 4060,
      "touches": 4061,
      "calend": 4062,
      "drowsy": 4063,
      "felic": 4064,
      "gazouill": 4065,
      "hilar": 4066,
      "masquer": 4067,
      "piscine": 4068,
      "rising": 4069,
      "vigil": 4070,
      "xoxo": 4071,
      "##puscule": 4072,
      "reguliere": 4073,
      "abriter": 4074,
      "unstable": 4075,
      "gentleman": 4076,
      "inspiration": 4077,
      "chapeau": 4078,
      "monnaie": 4079,
      "monsieur": 4080,
      "régulière": 4081,
      "réfléch": 4082,
      "planifiée": 4083,
      "permanently": 4084,
      "boulangerie": 4085,
      "breeze": 4086,
      "emergency": 4087,
      "gazouillis": 4088,
      "aise": 4089,
      "aube": 4090,
      "bot": 4091,
      "bark": 4092,
      "balling": 4093,
      "cres": 4094,
      "cater": 4095,
      "culture": 4096,
      "caut": 4097,
      "die": 4098,
      "dus": 4099,
      "fie": 4100,
      "flex": 4101,
      "gett": 4102,
      "gather": 4103,
      "hous": 4104,
      "hmm": 4105,
      "hume": 4106,
      "héb": 4107,
      "imme": 4108,
      "jol": 4109,
      "jok": 4110,
      "ku": 4111,
      "lift": 4112,
      "lifting": 4113,
      "mid": 4114,
      "make": 4115,
      "nor": 4116,
      "nid": 4117,
      "nég": 4118,
      "rè": 4119,
      "ranger": 4120,
      "route": 4121,
      "rassure": 4122,
      "sor": 4123,
      "sie": 4124,
      "slo": 4125,
      "tw": 4126,
      "tip": 4127,
      "tired": 4128,
      "ven": 4129,
      "vra": 4130,
      "vagu": 4131,
      "wa": 4132,
      "won": 4133,
      "wet": 4134,
      "wish": 4135,
      "warm": 4136,
      "warning": 4137,
      "week": 4138,
      "##eure": 4139,
      "##cent": 4140,
      "##cess": 4141,
      "##ove": 4142,
      "##nanc": 4143,
      "##ia": 4144,
      "##iat": 4145,
      "##ike": 4146,
      "##ivé": 4147,
      "##sult": 4148,
      "##tom": 4149,
      "##top": 4150,
      "##tée": 4151,
      "##ule": 4152,
      "##uisé": 4153,
      "##gne": 4154,
      "##ged": 4155,
      "##gate": 4156,
      "##gher": 4157,
      "##pill": 4158,
      "##vra": 4159,
      "##lance": 4160,
      "##lancolique": 4161,
      "##hanced": 4162,
      "##hold": 4163,
      "##wn": 4164,
      "##dd": 4165,
      "##dle": 4166,
      "##dos": 4167,
      "##diger": 4168,
      "##mot": 4169,
      "##éro": 4170,
      "##étrer": 4171,
      "##bul": 4172,
      "##bike": 4173,
      "##zing": 4174,
      "##for": 4175,
      "##fail": 4176,
      "##ferences": 4177,
      "##ktop": 4178,
      "##çu": 4179,
      "##ïde": 4180,
      "##erer": 4181,
      "##ergement": 4182,
      "##eria": 4183,
      "##ins": 4184,
      "dete": 4185,
      "detendu": 4186,
      "##onna": 4187,
      "##arque": 4188,
      "##ared": 4189,
      "##ariat": 4190,
      "##ane": 4191,
      "##rement": 4192,
      "##tement": 4193,
      "entr": 4194,
      "enhanced": 4195,
      "##urn": 4196,
      "##attu": 4197,
      "##attendu": 4198,
      "##ison": 4199,
      "regular": 4200,
      "reglages": 4201,
      "revert": 4202,
      "absent": 4203,
      "abattu": 4204,
      "##ortement": 4205,
      "##raper": 4206,
      "##iciel": 4207,
      "##icaux": 4208,
      "##icule": 4209,
      "##ita": 4210,
      "##itor": 4211,
      "##itten": 4212,
      "parad": 4213,
      "parten": 4214,
      "incre": 4215,
      "inbox": 4216,
      "inattendu": 4217,
      "chopp": 4218,
      "choses": 4219,
      "chaine": 4220,
      "coach": 4221,
      "toutes": 4222,
      "##neau": 4223,
      "##nement": 4224,
      "##uscri": 4225,
      "##pped": 4226,
      "##rial": 4227,
      "fianc": 4228,
      "##ctique": 4229,
      "détendu": 4230,
      "dézipper": 4231,
      "décontra": 4232,
      "déçu": 4233,
      "anneau": 4234,
      "stun": 4235,
      "still": 4236,
      "##ped": 4237,
      "##cee": 4238,
      "##ced": 4239,
      "level": 4240,
      "conven": 4241,
      "consult": 4242,
      "##uble": 4243,
      "recup": 4244,
      "reconna": 4245,
      "proble": 4246,
      "process": 4247,
      "laid": 4248,
      "lava": 4249,
      "shop": 4250,
      "shared": 4251,
      "##station": 4252,
      "##plane": 4253,
      "##vieuse": 4254,
      "complé": 4255,
      "comportement": 4256,
      "crab": 4257,
      "cracking": 4258,
      "##avy": 4259,
      "road": 4260,
      "rofl": 4261,
      "monde": 4262,
      "monarque": 4263,
      "monitor": 4264,
      "##ormi": 4265,
      "weak": 4266,
      "married": 4267,
      "margher": 4268,
      "##umée": 4269,
      "##ancee": 4270,
      "régate": 4271,
      "rédiger": 4272,
      "exe": 4273,
      "soon": 4274,
      "soins": 4275,
      "hein": 4276,
      "heavy": 4277,
      "planche": 4278,
      "snack": 4279,
      "snap": 4280,
      "meh": 4281,
      "courir": 4282,
      "couronne": 4283,
      "repas": 4284,
      "perte": 4285,
      "bouger": 4286,
      "##ditation": 4287,
      "chez": 4288,
      "##assible": 4289,
      "manager": 4290,
      "manuscri": 4291,
      "ami": 4292,
      "amie": 4293,
      "##ritten": 4294,
      "box": 4295,
      "bof": 4296,
      "connecte": 4297,
      "connector": 4298,
      "connectique": 4299,
      "autor": 4300,
      "##illée": 4301,
      "##ized": 4302,
      "pleut": 4303,
      "etre": 4304,
      "etat": 4305,
      "stars": 4306,
      "grille": 4307,
      "merger": 4308,
      "loss": 4309,
      "locked": 4310,
      "desktop": 4311,
      "couleur": 4312,
      "center": 4313,
      "mélancolique": 4314,
      "méditation": 4315,
      "joue": 4316,
      "outage": 4317,
      "personal": 4318,
      "versionnement": 4319,
      "état": 4320,
      "pizzeria": 4321,
      "telechargement": 4322,
      "available": 4323,
      "avancee": 4324,
      "forke": 4325,
      "forké": 4326,
      "typed": 4327,
      "tagged": 4328,
      "deploying": 4329,
      "snowy": 4330,
      "snowstorm": 4331,
      "keys": 4332,
      "téléphon": 4333,
      "novel": 4334,
      "smitten": 4335,
      "canicule": 4336,
      "lesson": 4337,
      "workstation": 4338,
      "impassible": 4339,
      "grandmot": 4340,
      "potager": 4341,
      "cloche": 4342,
      "exporter": 4343,
      "profit": 4344,
      "chronométrer": 4345,
      "renfor": 4346,
      "balise": 4347,
      "activé": 4348,
      "motorbike": 4349,
      "luck": 4350,
      "royaute": 4351,
      "fleuri": 4352,
      "fleurs": 4353,
      "savings": 4354,
      "charger": 4355,
      "gamin": 4356,
      "décrocher": 4357,
      "mountainous": 4358,
      "pregnanc": 4359,
      "cles": 4360,
      "moonlight": 4361,
      "livra": 4362,
      "secret": 4363,
      "automatisation": 4364,
      "naturel": 4365,
      "stylé": 4366,
      "androïde": 4367,
      "roue": 4368,
      "doigts": 4369,
      "checkout": 4370,
      "checked": 4371,
      "weights": 4372,
      "housecle": 4373,
      "household": 4374,
      "dégoûte": 4375,
      "skysc": 4376,
      "##encies": 4377,
      "encheres": 4378,
      "inquiete": 4379,
      "parfumée": 4380,
      "reduire": 4381,
      "reduced": 4382,
      "lightbul": 4383,
      "endormi": 4384,
      "bureaux": 4385,
      "drizz": 4386,
      "queasy": 4387,
      "##rowful": 4388,
      "tearful": 4389,
      "épicerie": 4390,
      "épuisé": 4391,
      "venteux": 4392,
      "discount": 4393,
      "job": 4394,
      "copie": 4395,
      "explose": 4396,
      "epicerie": 4397,
      "furious": 4398,
      "larme": 4399,
      "robotics": 4400,
      "enregistrement": 4401,
      "airplane": 4402,
      "logo": 4403,
      "logiciel": 4404,
      "purse": 4405,
      "ensoleillée": 4406,
      "remove": 4407,
      "majeure": 4408,
      "preocc": 4409,
      "preferences": 4410,
      "approval": 4411,
      "dependencies": 4412,
      "étoilée": 4413,
      "baissé": 4414,
      "baissiere": 4415,
      "pluvieuse": 4416,
      "croisiere": 4417,
      "rentrer": 4418,
      "photography": 4419,
      "photographie": 4420,
      "stockage": 4421,
      "répondre": 4422,
      "industriel": 4423,
      "industrial": 4424,
      "financial": 4425,
      "brumeux": 4426,
      "cinq": 4427,
      "félicite": 4428,
      "nauseous": 4429,
      "total": 4430,
      "urgent": 4431,
      "##érence": 4432,
      "eclairs": 4433,
      "handwritten": 4434,
      "alphabetique": 4435,
      "crush": 4436,
      "hesitant": 4437,
      "##atta": 4438,
      "authentification": 4439,
      "violation": 4440,
      "afficheur": 4441,
      "applaud": 4442,
      "exploited": 4443,
      "vulnerability": 4444,
      "orientation": 4445,
      "féru": 4446,
      "locally": 4447,
      "migrer": 4448,
      "capture": 4449,
      "grossesse": 4450,
      "relaxed": 4451,
      "hardware": 4452,
      "cochee": 4453,
      "downturn": 4454,
      "énervé": 4455,
      "bottom": 4456,
      "crescent": 4457,
      "caterpill": 4458,
      "caution": 4459,
      "diese": 4460,
      "dusk": 4461,
      "fievre": 4462,
      "getting": 4463,
      "gathering": 4464,
      "housing": 4465,
      "humeur": 4466,
      "hébergement": 4467,
      "immeuble": 4468,
      "jolie": 4469,
      "joker": 4470,
      "kudos": 4471,
      "liftoff": 4472,
      "middle": 4473,
      "north": 4474,
      "négatif": 4475,
      "règne": 4476,
      "sorrowful": 4477,
      "siege": 4478,
      "slope": 4479,
      "ventes": 4480,
      "vraiment": 4481,
      "vagues": 4482,
      "wahou": 4483,
      "wonder": 4484,
      "##faillance": 4485,
      "entrant": 4486,
      "partenariat": 4487,
      "increasing": 4488,
      "chopper": 4489,
      "fiancailles": 4490,
      "décontracté": 4491,
      "stunned": 4492,
      "convenience": 4493,
      "consultation": 4494,
      "recuperer": 4495,
      "reconnaissant": 4496,
      "probleme": 4497,
      "processing": 4498,
      "complétée": 4499,
      "margherita": 4500,
      "manuscrite": 4501,
      "couleurs": 4502,
      "grandmother": 4503,
      "pregnancy": 4504,
      "livraison": 4505,
      "housecleaning": 4506,
      "skyscraper": 4507,
      "lightbulb": 4508,
      "drizzle": 4509,
      "preoccupe": 4510,
      "caterpillar": 4511,
      "aé": 4512,
      "af": 4513,
      "bite": 4514,
      "bust": 4515,
      "bête": 4516,
      "bare": 4517,
      "cab": 4518,
      "da": 4519,
      "ding": 4520,
      "dra": 4521,
      "dancer": 4522,
      "daz": 4523,
      "diè": 4524,
      "dwell": 4525,
      "editeur": 4526,
      "fê": 4527,
      "fet": 4528,
      "fant": 4529,
      "feter": 4530,
      "fact": 4531,
      "fall": 4532,
      "fêt": 4533,
      "gast": 4534,
      "har": 4535,
      "have": 4536,
      "just": 4537,
      "king": 4538,
      "kick": 4539,
      "lou": 4540,
      "making": 4541,
      "masc": 4542,
      "né": 4543,
      "nett": 4544,
      "nive": 4545,
      "our": 4546,
      "occ": 4547,
      "option": 4548,
      "old": 4549,
      "pt": 4550,
      "pd": 4551,
      "pat": 4552,
      "pause": 4553,
      "sl": 4554,
      "ses": 4555,
      "sonne": 4556,
      "sly": 4557,
      "sché": 4558,
      "somm": 4559,
      "saine": 4560,
      "tu": 4561,
      "tid": 4562,
      "tôt": 4563,
      "us": 4564,
      "vole": 4565,
      "veuille": 4566,
      "veux": 4567,
      "wc": 4568,
      "weeping": 4569,
      "épineux": 4570,
      "##ected": 4571,
      "##cuter": 4572,
      "##cery": 4573,
      "##care": 4574,
      "##ob": 4575,
      "##ointe": 4576,
      "##oyage": 4577,
      "##ophilie": 4578,
      "##ng": 4579,
      "##naire": 4580,
      "##aqu": 4581,
      "##iot": 4582,
      "##ient": 4583,
      "##iance": 4584,
      "##sing": 4585,
      "##spe": 4586,
      "##ster": 4587,
      "##sive": 4588,
      "##tif": 4589,
      "##uce": 4590,
      "##uge": 4591,
      "##gment": 4592,
      "##gences": 4593,
      "##gagement": 4594,
      "##page": 4595,
      "##port": 4596,
      "##ris": 4597,
      "##rant": 4598,
      "##rone": 4599,
      "##vanced": 4600,
      "##lor": 4601,
      "##lète": 4602,
      "##dr": 4603,
      "##dent": 4604,
      "##drop": 4605,
      "##mar": 4606,
      "##érer": 4607,
      "##érent": 4608,
      "##éma": 4609,
      "##bor": 4610,
      "##father": 4611,
      "##fting": 4612,
      "##fait": 4613,
      "##fore": 4614,
      "##foot": 4615,
      "##èvre": 4616,
      "##îche": 4617,
      "##œure": 4618,
      "##erce": 4619,
      "##iner": 4620,
      "##ination": 4621,
      "definitivement": 4622,
      "defaillance": 4623,
      "##arn": 4624,
      "##ary": 4625,
      "##aration": 4626,
      "##enille": 4627,
      "##ted": 4628,
      "##teils": 4629,
      "enable": 4630,
      "engagement": 4631,
      "##ural": 4632,
      "##chand": 4633,
      "##ises": 4634,
      "reine": 4635,
      "reserver": 4636,
      "rejet": 4637,
      "reassure": 4638,
      "reveille": 4639,
      "uncle": 4640,
      "unwell": 4641,
      "##ilt": 4642,
      "##icieux": 4643,
      "parsing": 4644,
      "##igé": 4645,
      "chiot": 4646,
      "chenille": 4647,
      "coder": 4648,
      "##ason": 4649,
      "##quille": 4650,
      "##veill": 4651,
      "géograph": 4652,
      "fièvre": 4653,
      "##lict": 4654,
      "déserte": 4655,
      "débug": 4656,
      "throne": 4657,
      "##anté": 4658,
      "place": 4659,
      "plait": 4660,
      "##adcast": 4661,
      "learn": 4662,
      "##mpt": 4663,
      "record": 4664,
      "##terophilie": 4665,
      "##uline": 4666,
      "##ulsive": 4667,
      "##illeurs": 4668,
      "prompt": 4669,
      "clou": 4670,
      "arriere": 4671,
      "ardent": 4672,
      "budd": 4673,
      "built": 4674,
      "shy": 4675,
      "vois": 4676,
      "augment": 4677,
      "fais": 4678,
      "##sting": 4679,
      "##stand": 4680,
      "complice": 4681,
      "complète": 4682,
      "craque": 4683,
      "crawl": 4684,
      "##tened": 4685,
      "caffe": 4686,
      "spread": 4687,
      "fraîche": 4688,
      "marée": 4689,
      "marchand": 4690,
      "passer": 4691,
      "##ayer": 4692,
      "##umination": 4693,
      "male": 4694,
      "required": 4695,
      "more": 4696,
      "notre": 4697,
      "##cheresse": 4698,
      "orteils": 4699,
      "planning": 4700,
      "seance": 4701,
      "season": 4702,
      "tracte": 4703,
      "begg": 4704,
      "before": 4705,
      "jeans": 4706,
      "filmer": 4707,
      "meow": 4708,
      "meilleurs": 4709,
      "foyer": 4710,
      "question": 4711,
      "courriel": 4712,
      "repeter": 4713,
      "repugnant": 4714,
      "repulsive": 4715,
      "perdu": 4716,
      "##penser": 4717,
      "bouquin": 4718,
      "flipp": 4719,
      "pecher": 4720,
      "glad": 4721,
      "cerveau": 4722,
      "##issaire": 4723,
      "management": 4724,
      "souff": 4725,
      "autob": 4726,
      "swell": 4727,
      "taper": 4728,
      "##izen": 4729,
      "etape": 4730,
      "doggo": 4731,
      "starry": 4732,
      "goal": 4733,
      "ecouteurs": 4734,
      "ecœure": 4735,
      "écoute": 4736,
      "économiser": 4737,
      "éclats": 4738,
      "gris": 4739,
      "##appointe": 4740,
      "lock": 4741,
      "trone": 4742,
      "fever": 4743,
      "##alien": 4744,
      "goodb": 4745,
      "mécanique": 4746,
      "bonjour": 4747,
      "outils": 4748,
      "configure": 4749,
      "##roport": 4750,
      "televerser": 4751,
      "typage": 4752,
      "taggée": 4753,
      "neigeux": 4754,
      "program": 4755,
      "programme": 4756,
      "commerce": 4757,
      "commissaire": 4758,
      "advanced": 4759,
      "creve": 4760,
      "credit": 4761,
      "crevé": 4762,
      "volcanic": 4763,
      "horrif": 4764,
      "hauss": 4765,
      "singer": 4766,
      "natural": 4767,
      "forget": 4768,
      "raindrop": 4769,
      "regatta": 4770,
      "playlist": 4771,
      "##bled": 4772,
      "disappointe": 4773,
      "upward": 4774,
      "early": 4775,
      "runner": 4776,
      "courses": 4777,
      "implor": 4778,
      "douce": 4779,
      "##ablissement": 4780,
      "flowers": 4781,
      "italien": 4782,
      "##ronomique": 4783,
      "grandfather": 4784,
      "##voir": 4785,
      "young": 4786,
      "citizen": 4787,
      "frigh": 4788,
      "balayer": 4789,
      "reception": 4790,
      "recevoir": 4791,
      "shocked": 4792,
      "montagneux": 4793,
      "##astic": 4794,
      "news": 4795,
      "finished": 4796,
      "offrir": 4797,
      "royaut": 4798,
      "panel": 4799,
      "enfin": 4800,
      "scary": 4801,
      "découper": 4802,
      "décompresser": 4803,
      "searching": 4804,
      "takeoff": 4805,
      "conférence": 4806,
      "conflict": 4807,
      "grocery": 4808,
      "parked": 4809,
      "cleaning": 4810,
      "childcare": 4811,
      "alliance": 4812,
      "drôle": 4813,
      "objet": 4814,
      "statique": 4815,
      "maple": 4816,
      "croquer": 4817,
      "malicieux": 4818,
      "malveill": 4819,
      "cartable": 4820,
      "showing": 4821,
      "compressé": 4822,
      "texting": 4823,
      "brain": 4824,
      "valider": 4825,
      "beautif": 4826,
      "loudspe": 4827,
      "understand": 4828,
      "foggy": 4829,
      "paquet": 4830,
      "roman": 4831,
      "tâches": 4832,
      "downloading": 4833,
      "empaqu": 4834,
      "##iègle": 4835,
      "reflection": 4836,
      "parfume": 4837,
      "reduction": 4838,
      "espiègle": 4839,
      "terms": 4840,
      "feuill": 4841,
      "endpoint": 4842,
      "troubled": 4843,
      "publique": 4844,
      "technique": 4845,
      "sleepy": 4846,
      "tranquille": 4847,
      "collation": 4848,
      "conteneurs": 4849,
      "device": 4850,
      "surprised": 4851,
      "disgusting": 4852,
      "bars": 4853,
      "barres": 4854,
      "garcon": 4855,
      "épargne": 4856,
      "épouv": 4857,
      "fatale": 4858,
      "gestionnaire": 4859,
      "straté": 4860,
      "planté": 4861,
      "plantage": 4862,
      "discuter": 4863,
      "priseur": 4864,
      "karaoké": 4865,
      "conditional": 4866,
      "adjuge": 4867,
      "validation": 4868,
      "airport": 4869,
      "astuce": 4870,
      "remise": 4871,
      "remote": 4872,
      "classer": 4873,
      "indifférent": 4874,
      "cutting": 4875,
      "flames": 4876,
      "geographic": 4877,
      "asleep": 4878,
      "kidding": 4879,
      "solar": 4880,
      "solde": 4881,
      "préocc": 4882,
      "halterophilie": 4883,
      "physical": 4884,
      "enneigé": 4885,
      "scanne": 4886,
      "annonce": 4887,
      "eyeglasses": 4888,
      "drole": 4889,
      "channel": 4890,
      "spiny": 4891,
      "illumination": 4892,
      "verrouillé": 4893,
      "emballage": 4894,
      "responding": 4895,
      "reflechis": 4896,
      "cinéma": 4897,
      "crédit": 4898,
      "félicitations": 4899,
      "nauseeux": 4900,
      "urgences": 4901,
      "##érences": 4902,
      "fixer": 4903,
      "eclairer": 4904,
      "handwriting": 4905,
      "alphabetical": 4906,
      "entraîner": 4907,
      "entrainer": 4908,
      "throwing": 4909,
      "anxieux": 4910,
      "anxious": 4911,
      "suspens": 4912,
      "suspension": 4913,
      "ensoleillee": 4914,
      "instantanee": 4915,
      "instantanée": 4916,
      "saturne": 4917,
      "bursting": 4918,
      "broadcast": 4919,
      "fascine": 4920,
      "praying": 4921,
      "signed": 4922,
      "rejected": 4923,
      "insérer": 4924,
      "thoughtful": 4925,
      "compilateur": 4926,
      "réussi": 4927,
      "potential": 4928,
      "limite": 4929,
      "objectif": 4930,
      "effraye": 4931,
      "click": 4932,
      "wrapping": 4933,
      "strategie": 4934,
      "répugnant": 4935,
      "exécution": 4936,
      "extract": 4937,
      "vertige": 4938,
      "temporary": 4939,
      "agreement": 4940,
      "astronaute": 4941,
      "fingers": 4942,
      "wireless": 4943,
      "encryption": 4944,
      "choque": 4945,
      "déverrouillé": 4946,
      "angoisse": 4947,
      "arrache": 4948,
      "calendrier": 4949,
      "vigilance": 4950,
      "aéroport": 4951,
      "barefoot": 4952,
      "dawn": 4953,
      "dingue": 4954,
      "drafting": 4955,
      "dazed": 4956,
      "dièse": 4957,
      "dwelling": 4958,
      "fêter": 4959,
      "fetch": 4960,
      "fantastic": 4961,
      "facture": 4962,
      "fêté": 4963,
      "gastronomique": 4964,
      "harbor": 4965,
      "kickoff": 4966,
      "loupe": 4967,
      "masculine": 4968,
      "nettoyage": 4969,
      "niveau": 4970,
      "options": 4971,
      "ptdr": 4972,
      "pdf": 4973,
      "patient": 4974,
      "schéma": 4975,
      "sommet": 4976,
      "tidal": 4977,
      "usb": 4978,
      "veuillez": 4979,
      "##marrer": 4980,
      "rejeté": 4981,
      "reassured": 4982,
      "unclear": 4983,
      "géographique": 4984,
      "débugger": 4985,
      "buddies": 4986,
      "complètement": 4987,
      "crawling": 4988,
      "caffeine": 4989,
      "spreadsheet": 4990,
      "marchandises": 4991,
      "tracteur": 4992,
      "begging": 4993,
      "bouquiner": 4994,
      "flippant": 4995,
      "autobus": 4996,
      "goodbye": 4997,
      "horrified": 4998,
      "disappointed": 4999,
      "implorant": 5000,
      "youngster": 5001,
      "frightened": 5002,
      "royauté": 5003,
      "malveillant": 5004,
      "beautiful": 5005,
      "loudspeaker": 5006,
      "paquets": 5007,
      "empaqueter": 5008,
      "parfumee": 5009,
      "épouvanté": 5010,
      "stratégie": 5011,
      "préoccupé": 5012,
      "patienter": 5013,
      "amp": 5014,
      "ash": 5015,
      "averse": 5016,
      "bag": 5017,
      "bel": 5018,
      "bad": 5019,
      "bub": 5020,
      "bak": 5021,
      "dad": 5022,
      "dark": 5023,
      "dors": 5024,
      "era": 5025,
      "equipe": 5026,
      "fâ": 5027,
      "fille": 5028,
      "free": 5029,
      "get": 5030,
      "gri": 5031,
      "gos": 5032,
      "hé": 5033,
      "host": 5034,
      "ir": 5035,
      "lente": 5036,
      "mu": 5037,
      "mie": 5038,
      "na": 5039,
      "nus": 5040,
      "nord": 5041,
      "oc": 5042,
      "oub": 5043,
      "ombre": 5044,
      "pi": 5045,
      "pick": 5046,
      "piè": 5047,
      "pomm": 5048,
      "rig": 5049,
      "rad": 5050,
      "sne": 5051,
      "somme": 5052,
      "sick": 5053,
      "saf": 5054,
      "some": 5055,
      "siè": 5056,
      "test": 5057,
      "vœ": 5058,
      "vil": 5059,
      "went": 5060,
      "wow": 5061,
      "worn": 5062,
      "yes": 5063,
      "zo": 5064,
      "zany": 5065,
      "édit": 5066,
      "##ew": 5067,
      "##coming": 5068,
      "##oy": 5069,
      "##ocked": 5070,
      "##iète": 5071,
      "##site": 5072,
      "##side": 5073,
      "##sesse": 5074,
      "##sitant": 5075,
      "##tip": 5076,
      "##ué": 5077,
      "##uise": 5078,
      "##uous": 5079,
      "##uali": 5080,
      "##gagé": 5081,
      "##pos": 5082,
      "##plex": 5083,
      "##vation": 5084,
      "##lier": 5085,
      "##hail": 5086,
      "##happy": 5087,
      "##wly": 5088,
      "##wave": 5089,
      "##mise": 5090,
      "##mous": 5091,
      "##miration": 5092,
      "##éan": 5093,
      "##éra": 5094,
      "##ériel": 5095,
      "##bot": 5096,
      "##bro": 5097,
      "##born": 5098,
      "##ône": 5099,
      "##çon": 5100,
      "##çailles": 5101,
      "##erful": 5102,
      "##ertoire": 5103,
      "##iné": 5104,
      "##ink": 5105,
      "##indre": 5106,
      "dezipper": 5107,
      "##oule": 5108,
      "##arter": 5109,
      "##ots": 5110,
      "##lee": 5111,
      "##lementaires": 5112,
      "##ançailles": 5113,
      "phew": 5114,
      "ense": 5115,
      "entrer": 5116,
      "##urk": 5117,
      "##chée": 5118,
      "##chaine": 5119,
      "##atte": 5120,
      "reser": 5121,
      "realiser": 5122,
      "##orized": 5123,
      "unau": 5124,
      "unhappy": 5125,
      "##rass": 5126,
      "##ication": 5127,
      "##itating": 5128,
      "parole": 5129,
      "##ety": 5130,
      "##etrer": 5131,
      "##etration": 5132,
      "inser": 5133,
      "chute": 5134,
      "charg": 5135,
      "chante": 5136,
      "comme": 5137,
      "coquin": 5138,
      "##roi": 5139,
      "##thorized": 5140,
      "##amed": 5141,
      "##usé": 5142,
      "##quarter": 5143,
      "##dez": 5144,
      "##ppe": 5145,
      "##ved": 5146,
      "##ationship": 5147,
      "fiançailles": 5148,
      "##ooch": 5149,
      "débit": 5150,
      "détails": 5151,
      "dégagé": 5152,
      "throu": 5153,
      "things": 5154,
      "think": 5155,
      "stay": 5156,
      "struck": 5157,
      "stupé": 5158,
      "##antée": 5159,
      "##osé": 5160,
      "##osing": 5161,
      "left": 5162,
      "##mble": 5163,
      "synch": 5164,
      "conc": 5165,
      "propos": 5166,
      "prochaine": 5167,
      "class": 5168,
      "closing": 5169,
      "shade": 5170,
      "voler": 5171,
      "voix": 5172,
      "fache": 5173,
      "appare": 5174,
      "##plosé": 5175,
      "comparer": 5176,
      "compote": 5177,
      "company": 5178,
      "crabe": 5179,
      "crawly": 5180,
      "##aving": 5181,
      "poor": 5182,
      "pose": 5183,
      "toes": 5184,
      "toast": 5185,
      "toget": 5186,
      "caisse": 5187,
      "wealth": 5188,
      "spook": 5189,
      "marier": 5190,
      "marine": 5191,
      "maree": 5192,
      "marcher": 5193,
      "##endie": 5194,
      "explosé": 5195,
      "travel": 5196,
      "tractor": 5197,
      "traverse": 5198,
      "beurk": 5199,
      "jean": 5200,
      "##reshing": 5201,
      "meal": 5202,
      "medecin": 5203,
      "##lémentaires": 5204,
      "repertoire": 5205,
      "verte": 5206,
      "verger": 5207,
      "perplex": 5208,
      "scente": 5209,
      "flu": 5210,
      "flame": 5211,
      "fluster": 5212,
      "peer": 5213,
      "peine": 5214,
      "peindre": 5215,
      "chemise": 5216,
      "cheerful": 5217,
      "##ritated": 5218,
      "##ryside": 5219,
      "##ffled": 5220,
      "##ronisation": 5221,
      "caméra": 5222,
      "starring": 5223,
      "casse": 5224,
      "economiser": 5225,
      "gratte": 5226,
      "couper": 5227,
      "load": 5228,
      "##ushing": 5229,
      "awe": 5230,
      "trône": 5231,
      "campus": 5232,
      "feather": 5233,
      "annoy": 5234,
      "website": 5235,
      "centre": 5236,
      "méchant": 5237,
      "outer": 5238,
      "outline": 5239,
      "motocycle": 5240,
      "étape": 5241,
      "forked": 5242,
      "partage": 5243,
      "partner": 5244,
      "pieds": 5245,
      "busy": 5246,
      "taggee": 5247,
      "paint": 5248,
      "adore": 5249,
      "addition": 5250,
      "admiration": 5251,
      "create": 5252,
      "crepuscule": 5253,
      "snowing": 5254,
      "downward": 5255,
      "pêcher": 5256,
      "téléverser": 5257,
      "revoir": 5258,
      "regne": 5259,
      "regate": 5260,
      "smile": 5261,
      "smoot": 5262,
      "smooch": 5263,
      "upcoming": 5264,
      "timer": 5265,
      "leafy": 5266,
      "embrasse": 5267,
      "##arket": 5268,
      "worked": 5269,
      "heureux": 5270,
      "restore": 5271,
      "heads": 5272,
      "headquarter": 5273,
      "chronometrer": 5274,
      "montrer": 5275,
      "rendez": 5276,
      "##ités": 5277,
      "baffled": 5278,
      "supplementaires": 5279,
      "supplémentaires": 5280,
      "restaurer": 5281,
      "séance": 5282,
      "##ugé": 5283,
      "actuali": 5284,
      "speed": 5285,
      "##arché": 5286,
      "nuages": 5287,
      "chatbot": 5288,
      "newborn": 5289,
      "find": 5290,
      "final": 5291,
      "relationship": 5292,
      "agence": 5293,
      "panique": 5294,
      "papa": 5295,
      "stepping": 5296,
      "savoir": 5297,
      "annulee": 5298,
      "vieil": 5299,
      "envoyé": 5300,
      "candlelight": 5301,
      "hélico": 5302,
      "automatic": 5303,
      "obsesse": 5304,
      "overcast": 5305,
      "stored": 5306,
      "##akers": 5307,
      "heartbro": 5308,
      "incendie": 5309,
      "systems": 5310,
      "croissant": 5311,
      "croissance": 5312,
      "gear": 5313,
      "rouler": 5314,
      "checkpoint": 5315,
      "checkbox": 5316,
      "embarrass": 5317,
      "inquiète": 5318,
      "clés": 5319,
      "loudhail": 5320,
      "désertique": 5321,
      "blushing": 5322,
      "stylesheet": 5323,
      "swimmer": 5324,
      "matériel": 5325,
      "surpris": 5326,
      "completee": 5327,
      "dinner": 5328,
      "highest": 5329,
      "termes": 5330,
      "hospitalise": 5331,
      "hospitalisé": 5332,
      "biking": 5333,
      "tranche": 5334,
      "queen": 5335,
      "college": 5336,
      "effroi": 5337,
      "garée": 5338,
      "garçon": 5339,
      "crashe": 5340,
      "crashé": 5341,
      "clinic": 5342,
      "clinique": 5343,
      "copy": 5344,
      "epargne": 5345,
      "epuise": 5346,
      "furax": 5347,
      "adjugé": 5348,
      "terminee": 5349,
      "vacation": 5350,
      "refuse": 5351,
      "refaire": 5352,
      "refusé": 5353,
      "refreshing": 5354,
      "tooltip": 5355,
      "reponse": 5356,
      "débranchée": 5357,
      "approche": 5358,
      "approved": 5359,
      "boyfriend": 5360,
      "continuous": 5361,
      "sold": 5362,
      "préparer": 5363,
      "visiting": 5364,
      "unlocked": 5365,
      "scanné": 5366,
      "scanned": 5367,
      "impressionne": 5368,
      "fonctionnalite": 5369,
      "fatigué": 5370,
      "quelques": 5371,
      "dropping": 5372,
      "knocked": 5373,
      "kitten": 5374,
      "mdr": 5375,
      "rentrée": 5376,
      "integree": 5377,
      "verrouille": 5378,
      "financière": 5379,
      "supervised": 5380,
      "girlfriend": 5381,
      "cellphone": 5382,
      "heatwave": 5383,
      "countryside": 5384,
      "actualités": 5385,
      "intégrée": 5386,
      "individual": 5387,
      "blocking": 5388,
      "blooming": 5389,
      "crantée": 5390,
      "hesitating": 5391,
      "##attack": 5392,
      "provisionner": 5393,
      "authentication": 5394,
      "terrifié": 5395,
      "violent": 5396,
      "cordes": 5397,
      "supermarket": 5398,
      "supermarché": 5399,
      "applaudit": 5400,
      "exploitee": 5401,
      "vulnerabilite": 5402,
      "orienter": 5403,
      "burning": 5404,
      "broken": 5405,
      "ballon": 5406,
      "fasciné": 5407,
      "madame": 5408,
      "prayer": 5409,
      "rejete": 5410,
      "insight": 5411,
      "careful": 5412,
      "compiler": 5413,
      "potentiel": 5414,
      "limit": 5415,
      "effrayé": 5416,
      "reussie": 5417,
      "cherche": 5418,
      "chercher": 5419,
      "anonyme": 5420,
      "anonymous": 5421,
      "médicale": 5422,
      "médicaux": 5423,
      "declined": 5424,
      "bientot": 5425,
      "bientôt": 5426,
      "cyberattack": 5427,
      "bidder": 5428,
      "minou": 5429,
      "penetration": 5430,
      "piraté": 5431,
      "electronique": 5432,
      "felicite": 5433,
      "hilarious": 5434,
      "réfléchir": 5435,
      "detected": 5436,
      "execution": 5437,
      "wonderful": 5438,
      "after": 5439,
      "ampoule": 5440,
      "ashamed": 5441,
      "believe": 5442,
      "bubble": 5443,
      "bakery": 5444,
      "erase": 5445,
      "fâché": 5446,
      "freezing": 5447,
      "grippe": 5448,
      "gosse": 5449,
      "hésitant": 5450,
      "hosting": 5451,
      "irritated": 5452,
      "much": 5453,
      "naissance": 5454,
      "océan": 5455,
      "oublier": 5456,
      "pirate": 5457,
      "pièce": 5458,
      "pommes": 5459,
      "rigole": 5460,
      "radieux": 5461,
      "sneakers": 5462,
      "sommeil": 5463,
      "safety": 5464,
      "someone": 5465,
      "siège": 5466,
      "testing": 5467,
      "vœu": 5468,
      "vilain": 5469,
      "zoom": 5470,
      "éditer": 5471,
      "ensemble": 5472,
      "reservation": 5473,
      "unauthorized": 5474,
      "inserer": 5475,
      "charging": 5476,
      "chanteur": 5477,
      "through": 5478,
      "stupéfait": 5479,
      "synchronisation": 5480,
      "proposer": 5481,
      "classroom": 5482,
      "appareil": 5483,
      "together": 5484,
      "spooked": 5485,
      "traversee": 5486,
      "perplexe": 5487,
      "scented": 5488,
      "flustered": 5489,
      "feathers": 5490,
      "annoyed": 5491,
      "motocyclette": 5492,
      "partnership": 5493,
      "additional": 5494,
      "smooth": 5495,
      "headquarters": 5496,
      "actualites": 5497,
      "obsessed": 5498,
      "heartbroken": 5499,
      "embarrassé": 5500,
      "loudhailer": 5501,
      "avert": 5502,
      "ble": 5503,
      "band": 5504,
      "célé": 5505,
      "cup": 5506,
      "dm": 5507,
      "db": 5508,
      "dame": 5509,
      "dying": 5510,
      "ew": 5511,
      "erable": 5512,
      "epineux": 5513,
      "fut": 5514,
      "fiel": 5515,
      "gy": 5516,
      "hold": 5517,
      "ly": 5518,
      "lie": 5519,
      "lol": 5520,
      "mort": 5521,
      "mist": 5522,
      "messe": 5523,
      "nam": 5524,
      "num": 5525,
      "opé": 5526,
      "put": 5527,
      "pul": 5528,
      "pru": 5529,
      "paire": 5530,
      "pisse": 5531,
      "purch": 5532,
      "priere": 5533,
      "ron": 5534,
      "ramp": 5535,
      "race": 5536,
      "rass": 5537,
      "rôle": 5538,
      "sill": 5539,
      "sending": 5540,
      "sature": 5541,
      "va": 5542,
      "wal": 5543,
      "wri": 5544,
      "wick": 5545,
      "waving": 5546,
      "éle": 5547,
      "émer": 5548,
      "éché": 5549,
      "##ees": 5550,
      "##cée": 5551,
      "##oi": 5552,
      "##oj": 5553,
      "##oyer": 5554,
      "##nol": 5555,
      "##nif": 5556,
      "##aque": 5557,
      "##iole": 5558,
      "##sif": 5559,
      "##soleil": 5560,
      "##sidence": 5561,
      "##tique": 5562,
      "##gis": 5563,
      "##rin": 5564,
      "##rend": 5565,
      "##ronnement": 5566,
      "##vag": 5567,
      "##hau": 5568,
      "##worm": 5569,
      "##due": 5570,
      "##date": 5571,
      "##dence": 5572,
      "##mes": 5573,
      "##mation": 5574,
      "##ées": 5575,
      "##étique": 5576,
      "##yard": 5577,
      "##yable": 5578,
      "##bb": 5579,
      "##bir": 5580,
      "##bration": 5581,
      "##zip": 5582,
      "##férences": 5583,
      "##ères": 5584,
      "deux": 5585,
      "decu": 5586,
      "deman": 5587,
      "decontra": 5588,
      "depenser": 5589,
      "##onment": 5590,
      "##onished": 5591,
      "##let": 5592,
      "##anical": 5593,
      "##tect": 5594,
      "##teful": 5595,
      "entre": 5596,
      "ensoleil": 5597,
      "##uré": 5598,
      "##chanical": 5599,
      "##atage": 5600,
      "aboyer": 5601,
      "unread": 5602,
      "unzip": 5603,
      "##iee": 5604,
      "##ieval": 5605,
      "##agree": 5606,
      "##agrin": 5607,
      "##lere": 5608,
      "insert": 5609,
      "chir": 5610,
      "chut": 5611,
      "chance": 5612,
      "charm": 5613,
      "cheek": 5614,
      "chaî": 5615,
      "chagrin": 5616,
      "colere": 5617,
      "##auler": 5618,
      "surve": 5619,
      "##sed": 5620,
      "##seil": 5621,
      "##royable": 5622,
      "##elter": 5623,
      "toutou": 5624,
      "##acial": 5625,
      "##aste": 5626,
      "définitivement": 5627,
      "démarrer": 5628,
      "détect": 5629,
      "##ifiee": 5630,
      "levé": 5631,
      "conseil": 5632,
      "##ulaire": 5633,
      "lapt": 5634,
      "layer": 5635,
      "clapp": 5636,
      "##uebir": 5637,
      "shelter": 5638,
      "##restre": 5639,
      "door": 5640,
      "does": 5641,
      "doctor": 5642,
      "appelle": 5643,
      "##play": 5644,
      "comprend": 5645,
      "craquer": 5646,
      "terrestre": 5647,
      "montre": 5648,
      "monarch": 5649,
      "spending": 5650,
      "marché": 5651,
      "##endances": 5652,
      "réper": 5653,
      "réveille": 5654,
      "réaliser": 5655,
      "résidence": 5656,
      "expen": 5657,
      "exhau": 5658,
      "##alement": 5659,
      "soi": 5660,
      "sobb": 5661,
      "heber": 5662,
      "planifiee": 5663,
      "sejour": 5664,
      "travers": 5665,
      "winking": 5666,
      "mecanique": 5667,
      "mechant": 5668,
      "mechanical": 5669,
      "clouds": 5670,
      "quai": 5671,
      "quoi": 5672,
      "gray": 5673,
      "grateful": 5674,
      "perdue": 5675,
      "from": 5676,
      "glacial": 5677,
      "souven": 5678,
      "sweet": 5679,
      "sweeping": 5680,
      "ecris": 5681,
      "grillé": 5682,
      "loaf": 5683,
      "awaiting": 5684,
      "few": 5685,
      "médecin": 5686,
      "joué": 5687,
      "établissement": 5688,
      "backing": 5689,
      "forking": 5690,
      "partagé": 5691,
      "humide": 5692,
      "typing": 5693,
      "robotise": 5694,
      "##iens": 5695,
      "##sted": 5696,
      "musclé": 5697,
      "forme": 5698,
      "reviens": 5699,
      "playful": 5700,
      "desertique": 5701,
      "##uterie": 5702,
      "disli": 5703,
      "disagree": 5704,
      "display": 5705,
      "update": 5706,
      "handset": 5707,
      "calling": 5708,
      "workout": 5709,
      "workplace": 5710,
      "##erned": 5711,
      "importer": 5712,
      "helico": 5713,
      "dépendances": 5714,
      "##visé": 5715,
      "closed": 5716,
      "export": 5717,
      "expresso": 5718,
      "payer": 5719,
      "coché": 5720,
      "miauler": 5721,
      "attack": 5722,
      "attaque": 5723,
      "etoiles": 5724,
      "emoj": 5725,
      "séjour": 5726,
      "sécheresse": 5727,
      "##prise": 5728,
      "decompresser": 5729,
      "reviewing": 5730,
      "sonné": 5731,
      "bedroom": 5732,
      "lues": 5733,
      "royale": 5734,
      "panic": 5735,
      "footballer": 5736,
      "affiché": 5737,
      "sports": 5738,
      "filming": 5739,
      "rappeler": 5740,
      "vieille": 5741,
      "critter": 5742,
      "medieval": 5743,
      "étoiles": 5744,
      "candles": 5745,
      "directory": 5746,
      "schoolyard": 5747,
      "magnif": 5748,
      "houle": 5749,
      "incoming": 5750,
      "incroyable": 5751,
      "androide": 5752,
      "round": 5753,
      "rougis": 5754,
      "embarquer": 5755,
      "black": 5756,
      "bluebir": 5757,
      "##issements": 5758,
      "enchères": 5759,
      "supervisé": 5760,
      "revenu": 5761,
      "prière": 5762,
      "reduit": 5763,
      "lightning": 5764,
      "droplet": 5765,
      "uploader": 5766,
      "##veillé": 5767,
      "components": 5768,
      "fatal": 5769,
      "loop": 5770,
      "looping": 5771,
      "scheduled": 5772,
      "amazing": 5773,
      "amazed": 5774,
      "bookworm": 5775,
      "déconnexion": 5776,
      "epouv": 5777,
      "larva": 5778,
      "validée": 5779,
      "astonished": 5780,
      "compressee": 5781,
      "repond": 5782,
      "deconnexion": 5783,
      "bulb": 5784,
      "bruler": 5785,
      "preparer": 5786,
      "flammes": 5787,
      "somnol": 5788,
      "alphabétique": 5789,
      "debranchee": 5790,
      "préférences": 5791,
      "streaming": 5792,
      "orchard": 5793,
      "##oconf": 5794,
      "descend": 5795,
      "visioconf": 5796,
      "dropped": 5797,
      "stockees": 5798,
      "stockées": 5799,
      "répond": 5800,
      "réponse": 5801,
      "verrouiller": 5802,
      "confirmation": 5803,
      "cellulaire": 5804,
      "créer": 5805,
      "crépuscule": 5806,
      "deverrouille": 5807,
      "chapelle": 5808,
      "réduit": 5809,
      "telephoner": 5810,
      "religious": 5811,
      "environment": 5812,
      "##ctronique": 5813,
      "terrifie": 5814,
      "terrified": 5815,
      "control": 5816,
      "saturée": 5817,
      "féminine": 5818,
      "localement": 5819,
      "migrate": 5820,
      "capturer": 5821,
      "réussie": 5822,
      "ladybug": 5823,
      "wrapped": 5824,
      "strategy": 5825,
      "réparation": 5826,
      "exécuter": 5827,
      "extravag": 5828,
      "temporaire": 5829,
      "agreed": 5830,
      "astronaut": 5831,
      "haltéro": 5832,
      "bidding": 5833,
      "bestiole": 5834,
      "minuterie": 5835,
      "pensif": 5836,
      "piratage": 5837,
      "electronic": 5838,
      "publishing": 5839,
      "felicitations": 5840,
      "hilarant": 5841,
      "réfléchis": 5842,
      "two": 5843,
      "tweet": 5844,
      "paradis": 5845,
      "paradise": 5846,
      "autorise": 5847,
      "autorisé": 5848,
      "téléphoner": 5849,
      "téléphonique": 5850,
      "renforcee": 5851,
      "renforcée": 5852,
      "applaudir": 5853,
      "applaudissements": 5854,
      "occupé": 5855,
      "slip": 5856,
      "augmentent": 5857,
      "souffrant": 5858,
      "haussiere": 5859,
      "feuillage": 5860,
      "concerned": 5861,
      "avertissement": 5862,
      "bleu": 5863,
      "célébration": 5864,
      "future": 5865,
      "field": 5866,
      "gym": 5867,
      "lycee": 5868,
      "lieu": 5869,
      "namaste": 5870,
      "numéro": 5871,
      "opération": 5872,
      "pulled": 5873,
      "prudence": 5874,
      "pissed": 5875,
      "purchase": 5876,
      "ronronnement": 5877,
      "rampant": 5878,
      "rassuré": 5879,
      "silly": 5880,
      "saturee": 5881,
      "walking": 5882,
      "write": 5883,
      "wicked": 5884,
      "électronique": 5885,
      "émerveillé": 5886,
      "échéance": 5887,
      "demande": 5888,
      "decontracte": 5889,
      "entreprise": 5890,
      "ensoleillé": 5891,
      "chirping": 5892,
      "chutent": 5893,
      "cheeky": 5894,
      "chaîne": 5895,
      "surveiller": 5896,
      "détectée": 5897,
      "laptop": 5898,
      "layers": 5899,
      "clapping": 5900,
      "sheltering": 5901,
      "comprends": 5902,
      "répertoire": 5903,
      "expense": 5904,
      "exhausted": 5905,
      "sobbing": 5906,
      "hebergement": 5907,
      "traversée": 5908,
      "souvenir": 5909,
      "dislike": 5910,
      "emoji": 5911,
      "magnifique": 5912,
      "bluebird": 5913,
      "epouvante": 5914,
      "somnolent": 5915,
      "extravagant": 5916,
      "haltérophilie": 5917,
      "aer": 5918,
      "bill": 5919,
      "biz": 5920,
      "bla": 5921,
      "cran": 5922,
      "drou": 5923,
      "fre": 5924,
      "fum": 5925,
      "gag": 5926,
      "hab": 5927,
      "join": 5928,
      "ll": 5929,
      "lyc": 5930,
      "mel": 5931,
      "nau": 5932,
      "nail": 5933,
      "nick": 5934,
      "numer": 5935,
      "pad": 5936,
      "sang": 5937,
      "vider": 5938,
      "wack": 5939,
      "##cing": 5940,
      "##nce": 5941,
      "##ncing": 5942,
      "##ime": 5943,
      "##sée": 5944,
      "##gr": 5945,
      "##gan": 5946,
      "##gatif": 5947,
      "##pted": 5948,
      "##rôle": 5949,
      "##lit": 5950,
      "##lots": 5951,
      "##hill": 5952,
      "##hors": 5953,
      "##ming": 5954,
      "##bé": 5955,
      "##bil": 5956,
      "##belle": 5957,
      "##être": 5958,
      "##inelle": 5959,
      "deplier": 5960,
      "demarrer": 5961,
      "dehors": 5962,
      "##ounce": 5963,
      "##arre": 5964,
      "##arche": 5965,
      "##alleur": 5966,
      "##reach": 5967,
      "##tee": 5968,
      "recharger": 5969,
      "unreach": 5970,
      "##rabil": 5971,
      "##itée": 5972,
      "cocc": 5973,
      "##nérabil": 5974,
      "##qué": 5975,
      "##quante": 5976,
      "##iré": 5977,
      "##omy": 5978,
      "déchar": 5979,
      "dépenser": 5980,
      "leve": 5981,
      "syncing": 5982,
      "##ains": 5983,
      "congr": 5984,
      "##oport": 5985,
      "shower": 5986,
      "rod": 5987,
      "negatif": 5988,
      "moniteur": 5989,
      "##ancée": 5990,
      "marrant": 5991,
      "répé": 5992,
      "réduction": 5993,
      "achieve": 5994,
      "organ": 5995,
      "soye": 5996,
      "secheresse": 5997,
      "foret": 5998,
      "repair": 5999,
      "reparation": 6000,
      "bouge": 6001,
      "##dering": 6002,
      "##issé": 6003,
      "boots": 6004,
      "autonom": 6005,
      "etablissement": 6006,
      "starrer": 6007,
      "eclats": 6008,
      "écœur": 6009,
      "écris": 6010,
      "##used": 6011,
      "##lock": 6012,
      "coupé": 6013,
      "poubelle": 6014,
      "tombé": 6015,
      "announce": 6016,
      "##ctee": 6017,
      "couvert": 6018,
      "contrôle": 6019,
      "outil": 6020,
      "avancée": 6021,
      "snowfl": 6022,
      "downhill": 6023,
      "configurer": 6024,
      "différences": 6025,
      "ouf": 6026,
      "upset": 6027,
      "timing": 6028,
      "messaging": 6029,
      "bougies": 6030,
      "works": 6031,
      "expire": 6032,
      "expiré": 6033,
      "cochée": 6034,
      "pondering": 6035,
      "emission": 6036,
      "finally": 6037,
      "footballeur": 6038,
      "conflit": 6039,
      "confused": 6040,
      "rappelle": 6041,
      "medicale": 6042,
      "medicaux": 6043,
      "bonheur": 6044,
      "envoye": 6045,
      "attendre": 6046,
      "automatisé": 6047,
      "compressée": 6048,
      "##ighted": 6049,
      "hammering": 6050,
      "swim": 6051,
      "reflet": 6052,
      "completement": 6053,
      "bicyclette": 6054,
      "hospitalized": 6055,
      "delighted": 6056,
      "copains": 6057,
      "exploitée": 6058,
      "travaux": 6059,
      "degage": 6060,
      "degoute": 6061,
      "humidity": 6062,
      "login": 6063,
      "présent": 6064,
      "baissière": 6065,
      "gloomy": 6066,
      "impressionnant": 6067,
      "rentree": 6068,
      "vulnérabil": 6069,
      "financiere": 6070,
      "protegees": 6071,
      "protégées": 6072,
      "bloquante": 6073,
      "expressionless": 6074,
      "supermarche": 6075,
      "saturn": 6076,
      "chiffrement": 6077,
      "emerveille": 6078,
      "fenêtre": 6079,
      "reussi": 6080,
      "reussite": 6081,
      "downtime": 6082,
      "encrypted": 6083,
      "choqué": 6084,
      "déverrouiller": 6085,
      "angoissé": 6086,
      "arraché": 6087,
      "artificiels": 6088,
      "calendar": 6089,
      "vigilant": 6090,
      "detectee": 6091,
      "executer": 6092,
      "wondering": 6093,
      "occupe": 6094,
      "slow": 6095,
      "enabled": 6096,
      "augmenter": 6097,
      "souffler": 6098,
      "haussière": 6099,
      "feuillu": 6100,
      "visioconference": 6101,
      "aeroport": 6102,
      "bills": 6103,
      "bizarre": 6104,
      "blazing": 6105,
      "crantee": 6106,
      "drought": 6107,
      "freight": 6108,
      "fuming": 6109,
      "gagner": 6110,
      "habitation": 6111,
      "jointes": 6112,
      "lycée": 6113,
      "melancolique": 6114,
      "nausée": 6115,
      "nickel": 6116,
      "numero": 6117,
      "padlock": 6118,
      "sanglots": 6119,
      "wacky": 6120,
      "unreachable": 6121,
      "coccinelle": 6122,
      "déchargée": 6123,
      "congrats": 6124,
      "répéter": 6125,
      "achievement": 6126,
      "organize": 6127,
      "soyez": 6128,
      "autonomie": 6129,
      "écœuré": 6130,
      "announcement": 6131,
      "snowflake": 6132,
      "vulnérabilité": 6133,
      "nauséeux": 6134,
      "bdd": 6135,
      "having": 6136,
      "jeter": 6137,
      "moo": 6138,
      "mater": 6139,
      "rage": 6140,
      "woo": 6141,
      "wait": 6142,
      "##xpe": 6143,
      "##lure": 6144,
      "##lème": 6145,
      "##hav": 6146,
      "##blème": 6147,
      "##arme": 6148,
      "##red": 6149,
      "abas": 6150,
      "##ief": 6151,
      "##iegle": 6152,
      "##raid": 6153,
      "inacc": 6154,
      "generated": 6155,
      "chose": 6156,
      "##usted": 6157,
      "défaillance": 6158,
      "stupe": 6159,
      "unexpe": 6160,
      "problème": 6161,
      "rediger": 6162,
      "alarme": 6163,
      "wildfire": 6164,
      "behav": 6165,
      "##essible": 6166,
      "peak": 6167,
      "starred": 6168,
      "logement": 6169,
      "##aching": 6170,
      "avant": 6171,
      "differences": 6172,
      "nope": 6173,
      "eyed": 6174,
      "chaton": 6175,
      "relief": 6176,
      "crown": 6177,
      "espiegle": 6178,
      "neurons": 6179,
      "favoris": 6180,
      "disgusted": 6181,
      "quelque": 6182,
      "evil": 6183,
      "approaching": 6184,
      "réussite": 6185,
      "touch": 6186,
      "cyberatta": 6187,
      "énerve": 6188,
      "afraid": 6189,
      "conclure": 6190,
      "visioconférence": 6191,
      "controller": 6192,
      "mood": 6193,
      "materiel": 6194,
      "woozy": 6195,
      "abasourdi": 6196,
      "inaccessible": 6197,
      "stupefait": 6198,
      "unexpected": 6199,
      "behavior": 6200,
      "cyberattaque": 6201
    }
  }
}